<pad>	0
<unk>	0
<s>	0
</s>	0
▁be	-3.14626
▁the	-3.14998
▁and	-3.55543
▁game	-3.62577
▁to	-3.65872
▁a	-3.74559
▁i	-3.87307
▁it	-3.98757
▁of	-4.03507
▁you	-4.15154
▁this	-4.33057
▁have	-4.39067
▁not	-4.51038
▁in	-4.54372
▁for	-4.61587
▁that	-4.64855
▁play	-4.69413
▁with	-4.73003
▁but	-4.82357
▁do	-4.90412
▁on	-5.03773
▁get	-5.16164
▁can	-5.21271
▁like	-5.32569
L	-5.33412
▁if	-5.3359
▁as	-5.34789
▁so	-5.39525
▁just	-5.40199
▁my	-5.41927
▁fun	-5.49185
▁or	-5.52854
▁	-5.52873
▁your	-5.54001
▁make	-5.54605
▁time	-5.5601
▁all	-5.57819
▁good	-5.61871
▁they	-5.64343
▁will	-5.69635
▁more	-5.70266
▁its	-5.72914
▁there	-5.7357
▁at	-5.80451
▁from	-5.81958
▁one	-5.83463
▁player	-5.83785
▁even	-5.87525
▁me	-5.89673
ly	-5.90744
▁very	-5.92464
▁an	-5.95832
▁no	-5.99375
▁really	-6.02134
▁some	-6.02671
<	-6.02728
>	-6.02728
N	-6.02728
U	-6.02728
▁out	-6.04017
▁great	-6.07116
▁go	-6.08329
▁new	-6.11458
▁when	-6.12964
e	-6.13139
▁would	-6.1409
▁love	-6.16775
▁only	-6.19095
▁hour	-6.19885
▁up	-6.20658
▁still	-6.21377
s	-6.21708
▁much	-6.25137
▁what	-6.26864
▁want	-6.28605
▁feel	-6.29681
▁friend	-6.32581
▁recommend	-6.32878
▁story	-6.33707
▁by	-6.34192
▁well	-6.34204
▁about	-6.34611
▁because	-6.35762
▁also	-6.365
▁into	-6.38519
▁now	-6.40395
▁lot	-6.40738
▁than	-6.41
▁after	-6.41021
▁every	-6.41611
▁year	-6.41767
▁other	-6.42416
▁thing	-6.44895
▁experience	-6.45062
ing	-6.45431
▁how	-6.46986
▁try	-6.49377
▁way	-6.49788
▁buy	-6.50818
▁which	-6.51777
▁then	-6.51802
▁people	-6.54769
▁their	-6.56369
▁best	-6.56508
▁gameplay	-6.58145
▁most	-6.58307
▁first	-6.5856
▁many	-6.59941
▁say	-6.60029
▁take	-6.6041
▁over	-6.60588
▁use	-6.61572
▁who	-6.63207
▁them	-6.6322
▁world	-6.66192
▁too	-6.68277
▁character	-6.68618
▁give	-6.6879
▁any	-6.70254
▁ever	-6.71713
▁find	-6.71913
▁look	-6.72247
▁see	-6.72337
▁need	-6.7255
▁start	-6.73261
▁come	-6.73897
▁while	-6.74334
▁back	-6.74857
▁think	-6.74924
▁enjoy	-6.75756
y	-6.79645
▁update	-6.81779
▁mod	-6.82181
▁s	-6.82707
▁server	-6.82913
▁never	-6.83048
▁run	-6.85225
▁work	-6.85838
▁keep	-6.86647
▁could	-6.86864
▁know	-6.8711
▁we	-6.87169
▁money	-6.87471
▁content	-6.8875
er	-6.89751
▁where	-6.90031
▁community	-6.90204
▁issue	-6.91463
▁since	-6.95566
▁worth	-6.9603
▁graphic	-6.96904
▁add	-6.97524
▁system	-6.98605
▁through	-6.99474
▁bad	-7.00087
▁fix	-7.02802
▁same	-7.02852
▁map	-7.05463
▁long	-7.05869
▁better	-7.06185
d	-7.08619
▁base	-7.0956
▁build	-7.09807
▁hard	-7.10583
ed	-7.11222
▁change	-7.11473
▁something	-7.11828
▁end	-7.12521
▁again	-7.12679
▁should	-7.14034
▁free	-7.14265
▁day	-7.14689
▁different	-7.15086
▁mechanic	-7.1519
▁re	-7.15248
▁around	-7.15669
▁pretty	-7.16272
▁pc	-7.16708
▁off	-7.18237
▁everything	-7.1906
▁without	-7.1954
▁combat	-7.20455
▁steam	-7.21434
▁life	-7.2165
▁mode	-7.22529
▁always	-7.23455
▁overall	-7.23473
▁spend	-7.23557
▁dlc	-7.24696
▁level	-7.24756
▁bug	-7.25375
▁team	-7.26706
▁few	-7.27101
▁before	-7.28521
▁pay	-7.31606
▁nothing	-7.32408
▁down	-7.3275
▁own	-7.32895
▁cheater	-7.33771
▁review	-7.34396
▁match	-7.3503
▁though	-7.352
▁little	-7.35416
▁weapon	-7.35436
▁release	-7.3668
▁these	-7.37081
▁actually	-7.37104
▁bit	-7.3712
▁survival	-7.37253
▁crash	-7.38318
▁why	-7.38974
▁far	-7.3931
▁point	-7.39417
▁learn	-7.39689
▁those	-7.41524
▁problem	-7.4264
▁once	-7.42736
▁put	-7.42777
▁kill	-7.42782
▁grind	-7.43525
▁dont	-7.45345
▁part	-7.45984
▁enough	-7.46144
▁fight	-7.47096
▁amazing	-7.48205
▁seem	-7.48902
▁leave	-7.49944
▁easy	-7.50258
▁each	-7.50994
▁especially	-7.5158
▁design	-7.52192
▁such	-7.52369
▁un	-7.52422
▁let	-7.52767
▁however	-7.53077
▁lose	-7.53079
▁anything	-7.53117
▁t	-7.53426
▁become	-7.55569
▁quit	-7.55735
▁shit	-7.55859
▁full	-7.5611
▁right	-7.56125
▁until	-7.56521
▁another	-7.57795
▁old	-7.58044
▁real	-7.58103
▁here	-7.58768
t	-7.59693
▁nice	-7.60077
▁open	-7.60217
▁challenge	-7.60744
▁valve	-7.60826
▁last	-7.61322
▁support	-7.61769
▁absolutely	-7.62011
▁reason	-7.62512
▁bot	-7.63116
▁fan	-7.63195
▁enemy	-7.63589
▁single	-7.64929
▁cool	-7.65068
▁online	-7.65301
▁developer	-7.65467
▁cheat	-7.65511
▁almost	-7.65947
▁stuff	-7.6646
▁multiplayer	-7.66746
▁definitely	-7.67699
▁fuck	-7.68077
▁wait	-7.68829
▁co	-7.70161
▁company	-7.70606
▁price	-7.70784
r	-7.70812
al	-7.70938
▁mission	-7.7098
▁u	-7.71418
▁battle	-7.71981
▁turn	-7.73283
less	-7.7365
▁sure	-7.73816
st	-7.73845
▁die	-7.74126
▁amount	-7.74267
▁help	-7.74508
▁able	-7.75209
▁item	-7.75948
▁care	-7.76226
▁high	-7.76372
▁skill	-7.77128
▁already	-7.77305
▁yet	-7.77627
▁break	-7.77849
▁explore	-7.77966
▁probably	-7.78683
▁devs	-7.78748
▁stop	-7.78915
▁offer	-7.80044
▁highly	-7.80363
▁man	-7.80664
▁anyone	-7.80777
▁both	-7.81044
▁big	-7.81654
▁might	-7.81697
▁win	-7.81799
▁feature	-7.81929
▁amaze	-7.82096
▁main	-7.82393
▁everyone	-7.82474
▁least	-7.83442
▁super	-7.8362
▁hit	-7.83844
▁worse	-7.84154
▁mean	-7.84452
▁cant	-7.84512
▁ban	-7.85009
▁b	-7.85353
▁create	-7.86046
▁sometimes	-7.87665
▁complete	-7.87702
▁instead	-7.87833
▁na	-7.88155
n	-7.88379
▁next	-7.88435
▁unique	-7.89185
▁boss	-7.8972
▁original	-7.89888
▁worst	-7.90014
▁perfect	-7.90249
▁beautiful	-7.90684
▁either	-7.90811
▁wallpaper	-7.9103
▁option	-7.91065
▁allow	-7.91085
▁may	-7.91366
▁hope	-7.9164
▁version	-7.91689
▁maybe	-7.91729
▁side	-7.91768
▁set	-7.92509
you	-7.93344
▁second	-7.93361
▁building	-7.93945
▁completely	-7.9402
▁tell	-7.94069
▁away	-7.94394
te	-7.94432
ion	-7.95351
▁war	-7.9564
▁quest	-7.95699
▁top	-7.95761
▁im	-7.95892
▁someone	-7.961
▁less	-7.96413
▁ea	-7.96946
▁honestly	-7.97068
▁he	-7.97227
▁launch	-7.97686
▁wish	-7.97826
▁zombie	-7.97937
▁sale	-7.98062
▁ark	-7.98256
▁two	-7.98296
▁move	-7.98759
▁save	-7.99787
▁happen	-7.99837
▁please	-8.00435
▁moment	-8.0072
▁enjoyable	-8.00859
▁favorite	-8.01244
▁call	-8.01295
▁monster	-8.01771
▁against	-8.01918
▁bos	-8.02108
▁whole	-8.02683
▁gun	-8.02717
▁kind	-8.0281
▁yourself	-8.03203
▁us	-8.03515
▁action	-8.03545
▁waste	-8.03622
▁literally	-8.04104
▁account	-8.04406
▁truly	-8.04866
▁control	-8.05015
▁ruin	-8.05793
▁ai	-8.06473
▁farm	-8.06503
▁suck	-8.06593
▁due	-8.06735
▁understand	-8.06756
▁must	-8.06774
▁bring	-8.07896
▁hate	-8.07988
▁place	-8.08796
▁miss	-8.0943
▁unplayable	-8.09455
▁watch	-8.09807
▁difficulty	-8.09904
▁fast	-8.10091
▁solo	-8.1068
▁awesome	-8.1087
▁lack	-8.11227
▁minute	-8.11674
▁balance	-8.11815
▁expect	-8.12333
▁reward	-8.13103
▁extreme	-8.13217
▁else	-8.13715
▁finish	-8.14542
▁decent	-8.14635
▁drop	-8.14731
▁load	-8.14858
▁aspect	-8.14959
▁season	-8.15075
▁terrible	-8.15299
▁myself	-8.15517
▁decide	-8.15563
▁etc	-8.15798
▁half	-8.16078
▁performance	-8.1622
able	-8.16872
▁series	-8.16878
▁setting	-8.16982
▁anymore	-8.1759
▁soul	-8.17838
▁continue	-8.17863
▁strategy	-8.17876
▁itself	-8.17929
▁improve	-8.18457
▁show	-8.18643
▁yes	-8.19379
▁ability	-8.19423
▁short	-8.19462
▁toxic	-8.19597
▁fact	-8.20145
▁month	-8.20215
▁remove	-8.20292
▁despi	-8.20915
▁attack	-8.21127
▁beat	-8.21362
▁skin	-8.21478
▁ton	-8.21487
▁fps	-8.21672
▁style	-8.21676
▁state	-8.21692
▁variety	-8.22618
▁type	-8.23321
▁purchase	-8.23511
▁force	-8.2359
▁simple	-8.23668
▁killer	-8.23712
▁difficult	-8.23765
▁huge	-8.24035
▁between	-8.24283
▁pick	-8.24434
▁require	-8.24597
▁core	-8.24913
▁pvp	-8.24948
▁rank	-8.25239
▁progress	-8.25574
▁cause	-8.26449
ther	-8.26591
▁sense	-8.2666
▁shooter	-8.27009
▁dead	-8.27542
▁d	-8.28139
▁interesting	-8.28405
▁craft	-8.28567
▁quality	-8.28707
▁anti	-8.28819
▁engage	-8.28963
▁cat	-8.2922
▁fantastic	-8.2924
▁f	-8.29251
▁others	-8.29403
▁drive	-8.29786
▁title	-8.29884
▁often	-8.30087
▁engine	-8.30213
▁entire	-8.30364
▁slow	-8.30539
▁download	-8.31133
▁basically	-8.31406
▁finally	-8.32193
▁shoot	-8.32631
▁whe	-8.32897
▁low	-8.33331
▁video	-8.3358
▁m	-8.33879
▁ago	-8.34
▁mind	-8.34226
▁stick	-8.34524
▁trash	-8.34568
▁random	-8.34892
▁sound	-8.35252
▁simply	-8.35483
▁horror	-8.35589
▁op	-8.36166
▁job	-8.36391
▁constantly	-8.3643
▁remake	-8.36793
▁matter	-8.36793
▁multipl	-8.36831
▁bore	-8.36884
a	-8.36957
▁realistic	-8.37202
▁depth	-8.37258
▁guy	-8.37561
▁absolute	-8.37925
▁focus	-8.38222
o	-8.38498
▁line	-8.38526
▁unlock	-8.38548
▁fine	-8.38606
▁felt	-8.38656
▁rath	-8.38668
▁past	-8.38671
▁longer	-8.38978
▁class	-8.3944
▁annoy	-8.39525
▁compare	-8.39542
▁dur	-8.39745
▁detail	-8.39876
▁pro	-8.4069
▁idea	-8.40754
▁environment	-8.40915
▁join	-8.40952
▁movement	-8.4105
▁his	-8.4152
▁together	-8.41821
▁simulator	-8.41942
▁choose	-8.42003
▁casual	-8.42319
▁include	-8.42338
▁exploration	-8.42368
▁loot	-8.42574
▁hand	-8.42898
▁raid	-8.4298
▁space	-8.431
▁music	-8.43472
▁final	-8.43633
▁person	-8.4373
▁behind	-8.43905
▁event	-8.44143
▁manage	-8.44455
▁consider	-8.44582
▁opinion	-8.44776
▁close	-8.44904
▁boring	-8.45717
▁dlcs	-8.45879
▁provide	-8.46033
▁screen	-8.4624
▁truck	-8.466
▁area	-8.46668
▁alone	-8.46732
▁beta	-8.48436
▁easily	-8.48661
▁general	-8.48674
▁pace	-8.49053
▁small	-8.49278
▁playing	-8.4947
▁gaming	-8.49783
uple	-8.4985
▁genre	-8.49972
▁mess	-8.50408
▁live	-8.5059
▁ask	-8.50956
▁adventure	-8.51224
▁survivor	-8.51227
▁stay	-8.5168
▁later	-8.51877
▁lore	-8.52031
▁armor	-8.52055
▁week	-8.52162
▁our	-8.52177
▁endless	-8.52203
▁insane	-8.52232
▁fifa	-8.52772
▁oh	-8.52977
▁actual	-8.53043
▁stupid	-8.53234
▁competitive	-8.53314
▁late	-8.53543
▁deep	-8.53556
▁solid	-8.5387
▁certain	-8.54064
▁resource	-8.54136
▁talk	-8.54595
▁upgrade	-8.54612
▁lock	-8.54621
▁expansion	-8.54962
▁immersive	-8.55031
▁incredible	-8.55174
▁although	-8.55239
▁garbage	-8.55239
▁ve	-8.55309
▁ring	-8.5549
▁mostly	-8.55591
▁console	-8.55656
▁write	-8.55831
▁stand	-8.55925
▁civ	-8.56059
▁god	-8.56106
▁choice	-8.56355
▁matchmaking	-8.56495
▁voice	-8.56706
▁current	-8.56864
▁city	-8.56872
▁wrong	-8.5713
▁face	-8.57475
▁destiny	-8.57491
▁hell	-8.57547
▁shot	-8.57659
▁hold	-8.57665
▁c	-8.57786
▁incredibl	-8.57835
▁kinda	-8.58022
▁dark	-8.58113
▁heart	-8.58287
▁art	-8.5893
▁epic	-8.59057
▁possible	-8.59129
▁computer	-8.59132
▁progression	-8.59251
▁campaign	-8.59273
▁v	-8.5977
▁meet	-8.60134
▁early	-8.6039
▁chance	-8.6051
▁customization	-8.6073
▁constant	-8.61266
▁potential	-8.61464
▁masterpiece	-8.61908
▁ive	-8.62017
▁large	-8.6228
▁con	-8.62401
▁master	-8.62406
▁lobby	-8.62428
▁interest	-8.62698
▁fill	-8.62705
▁improvement	-8.62742
▁funny	-8.62924
▁pass	-8.63108
▁remember	-8.63327
▁pas	-8.63375
▁group	-8.63402
▁read	-8.63507
▁mention	-8.63667
g	-8.64228
▁hacker	-8.6429
▁jump	-8.64386
▁access	-8.64616
▁fire	-8.65094
▁patch	-8.65379
▁car	-8.65454
▁negative	-8.65494
▁spawn	-8.65534
▁lag	-8.65543
▁nioh	-8.65609
▁switch	-8.65686
▁check	-8.65839
▁fresh	-8.66072
▁kick	-8.66153
m	-8.66224
▁test	-8.6662
▁count	-8.66667
▁gear	-8.66692
▁deck	-8.66695
▁future	-8.66706
▁hear	-8.66903
▁linux	-8.6716
▁power	-8.67496
b	-8.67529
▁light	-8.67573
▁beyond	-8.67866
▁sad	-8.68076
▁fall	-8.68528
▁under	-8.68553
▁menu	-8.68828
▁deal	-8.69163
▁term	-8.70013
▁cosmetic	-8.70014
▁puzzle	-8.70014
▁controller	-8.70017
ation	-8.70094
▁previous	-8.70225
▁along	-8.70262
▁repetitive	-8.70323
▁special	-8.70434
▁capcom	-8.70498
▁horrible	-8.70579
▁spider	-8.70653
▁kid	-8.70659
▁hundred	-8.70903
▁sell	-8.70908
▁figure	-8.71309
▁pack	-8.72041
▁believe	-8.72045
▁paradox	-8.72209
▁throw	-8.72217
▁rust	-8.7227
▁elden	-8.72621
▁grab	-8.72635
l	-8.72732
▁decision	-8.72787
▁user	-8.72807
▁gon	-8.7296
▁example	-8.73035
▁achievement	-8.73287
▁vehicle	-8.73533
▁impossible	-8.73537
▁p	-8.73655
▁sever	-8.73725
▁dota	-8.73878
▁raft	-8.74203
▁tank	-8.7438
▁element	-8.74454
▁plus	-8.74525
▁hunter	-8.74605
▁forest	-8.74651
▁evil	-8.74706
▁franchise	-8.74875
▁step	-8.74876
▁whatever	-8.75006
▁forget	-8.75049
▁platform	-8.75085
▁wall	-8.75255
▁encounter	-8.75383
▁average	-8.75553
i	-8.75893
▁guess	-8.76064
▁tutorial	-8.7615
k	-8.76168
▁curve	-8.76408
▁warframe	-8.76466
▁follow	-8.76592
c	-8.77673
▁dollar	-8.77701
▁him	-8.77884
▁true	-8.77962
▁personally	-8.78302
▁drm	-8.78404
▁lol	-8.78487
▁otherwise	-8.78666
▁visuals	-8.78677
▁exist	-8.78744
▁return	-8.78748
▁ball	-8.78768
▁massive	-8.78828
▁gta	-8.79095
▁thank	-8.79152
▁cost	-8.79317
▁refund	-8.79364
▁evolve	-8.80098
▁across	-8.80519
▁wan	-8.80606
▁piece	-8.80698
est	-8.80773
▁head	-8.81351
▁classic	-8.81668
▁basic	-8.81682
▁name	-8.82176
▁visual	-8.82307
▁cod	-8.8255
▁number	-8.82697
▁death	-8.82871
▁history	-8.8296
ve	-8.82971
▁relax	-8.83337
▁currency	-8.83511
▁fair	-8.83703
on	-8.84087
▁awful	-8.84158
▁plenty	-8.8425
▁non	-8.84255
▁except	-8.844
ous	-8.84418
ic	-8.84435
▁somehow	-8.84534
▁available	-8.84538
▁glitch	-8.84603
▁addition	-8.84674
▁chat	-8.84716
▁lead	-8.84808
▁country	-8.84817
▁atmosphere	-8.84901
▁report	-8.84998
▁unfortunately	-8.8513
▁replay	-8.85166
▁fail	-8.85181
▁playable	-8.85592
▁within	-8.85827
▁damage	-8.86312
▁grow	-8.86743
▁animation	-8.87262
▁thanks	-8.87287
▁fucking	-8.87304
▁value	-8.87386
▁frame	-8.87465
▁teammate	-8.87553
f	-8.87693
▁positive	-8.87757
▁major	-8.87825
▁buggy	-8.88035
▁resident	-8.88223
▁course	-8.88244
le	-8.88368
▁friendly	-8.88471
▁thousand	-8.88609
▁edit	-8.88755
▁wont	-8.88811
▁tho	-8.88906
▁chill	-8.89193
▁minor	-8.89286
▁genuinely	-8.89443
▁modding	-8.89485
▁earn	-8.89506
▁football	-8.89597
▁similar	-8.89765
▁addict	-8.89888
▁clear	-8.90043
▁exact	-8.90074
▁walk	-8.9008
▁yeah	-8.90172
▁she	-8.9021
▁damn	-8.90274
▁forward	-8.90767
▁feeling	-8.91026
▁ultimate	-8.91159
▁easier	-8.91564
▁loop	-8.91659
▁push	-8.91857
▁touch	-8.91957
▁order	-8.9196
▁attention	-8.92359
▁alot	-8.92359
▁blast	-8.92465
▁listen	-8.9257
▁league	-8.92668
ness	-8.93095
▁joke	-8.93528
▁happy	-8.93573
▁pve	-8.93591
or	-8.93593
▁crazy	-8.93777
▁excellent	-8.93777
▁seriously	-8.93841
▁range	-8.94303
▁dynamic	-8.9439
nt	-8.94428
▁survive	-8.94493
▁nearly	-8.94628
▁memory	-8.94802
▁apex	-8.94905
▁recent	-8.94943
▁island	-8.95009
▁effort	-8.95067
▁post	-8.95093
▁modern	-8.95105
▁weird	-8.95111
▁thats	-8.95429
▁log	-8.9578
▁model	-8.95926
▁cut	-8.95964
▁soon	-8.96273
▁smooth	-8.963
▁ui	-8.96492
▁aim	-8.96775
▁usually	-8.96855
▁case	-8.96896
▁recently	-8.96951
▁mmo	-8.97008
▁straight	-8.97095
▁cash	-8.97307
▁sandbox	-8.97322
▁adult	-8.97623
▁fly	-8.98174
▁hop	-8.98193
▁three	-8.98377
▁poor	-8.98419
▁remain	-8.98475
▁speed	-8.98579
▁xbox	-8.98904
▁frustrate	-8.98927
ity	-8.98989
▁satisfy	-8.99465
▁software	-8.99766
▁sit	-8.99882
▁tier	-9.00049
▁deserve	-9.00059
▁ship	-9.00085
▁dungeon	-9.00091
▁fully	-9.00379
▁discover	-9.0064
▁rockstar	-9.00745
▁collect	-9.00769
▁brain	-9.00817
▁begin	-9.00855
▁normal	-9.00918
▁addictive	-9.00972
▁rest	-9.01283
in	-9.01408
▁mid	-9.01534
▁realize	-9.01765
▁important	-9.01849
▁reach	-9.01862
▁rise	-9.02178
▁scene	-9.02292
▁wonderful	-9.0232
▁eye	-9.02399
▁sort	-9.02607
▁perk	-9.02857
▁star	-9.0301
▁higher	-9.03202
▁word	-9.033
▁dayz	-9.03341
▁goal	-9.03371
▁payday	-9.03531
ou	-9.03633
p	-9.03967
▁invest	-9.04073
▁avoid	-9.04316
▁develop	-9.04322
▁excite	-9.0444
▁quick	-9.04615
▁destroy	-9.04647
▁bigge	-9.05091
▁complex	-9.05091
▁frustrating	-9.05218
▁vast	-9.05223
▁hero	-9.05719
▁list	-9.06057
it	-9.06342
▁ac	-9.06385
▁pubg	-9.06486
▁plan	-9.06563
▁dev	-9.06789
▁career	-9.07204
▁limit	-9.07272
▁strong	-9.07273
▁intense	-9.07652
▁near	-9.07846
▁extra	-9.07874
▁window	-9.07919
▁error	-9.08001
▁bunch	-9.08121
▁rich	-9.08236
▁barely	-9.08304
▁wonder	-9.08321
▁quickly	-9.08518
▁act	-9.08775
▁outside	-9.08921
▁journey	-9.09183
▁storyline	-9.09286
▁bother	-9.09429
▁workshop	-9.0978
▁click	-9.1002
▁counter	-9.10055
▁today	-9.10096
▁trust	-9.10141
▁heist	-9.10152
▁rare	-9.10261
▁file	-9.10273
▁effect	-9.10373
▁official	-9.10375
▁tree	-9.104
▁button	-9.10494
▁ok	-9.10512
▁age	-9.10579
▁strike	-9.10698
▁land	-9.10752
▁mech	-9.11058
▁stardew	-9.11105
▁souls	-9.11124
▁score	-9.11229
▁development	-9.1148
▁e	-9.11654
▁luck	-9.11789
▁market	-9.11804
▁hogwarts	-9.11839
▁ignore	-9.11879
▁ridiculous	-9.11958
en	-9.12021
▁thrill	-9.12045
▁remnant	-9.1208
▁introduce	-9.12212
▁shame	-9.12277
▁secret	-9.12818
▁broken	-9.12823
▁eat	-9.12893
▁totally	-9.13157
ce	-9.13733
▁ground	-9.1381
▁de	-9.14193
▁npc	-9.14235
▁deliver	-9.14374
▁imagine	-9.1456
▁hook	-9.14604
▁planet	-9.14724
▁hunt	-9.14932
▁party	-9.15293
▁learning	-9.15343
▁water	-9.15493
▁install	-9.15594
▁currently	-9.15678
▁bungie	-9.15696
▁connect	-9.15788
▁key	-9.15836
▁greatest	-9.16155
▁forever	-9.1619
▁minecraft	-9.16207
▁okay	-9.16335
▁gen	-9.16369
▁attempt	-9.16461
▁themselves	-9.16461
▁launcher	-9.16535
▁doesnt	-9.16606
▁product	-9.17062
▁premium	-9.17361
▁civilization	-9.1762
h	-9.17694
▁replayability	-9.17755
▁tool	-9.17795
▁service	-9.17879
▁rate	-9.18474
▁soundtrack	-9.18791
▁black	-9.18792
▁night	-9.18843
▁box	-9.19085
▁economy	-9.1958
▁r	-9.19906
▁prefer	-9.2024
▁rating	-9.20298
▁spell	-9.20775
▁regret	-9.21039
▁ubisoft	-9.21177
▁teen	-9.21183
▁pure	-9.21319
▁promise	-9.21446
▁fantasy	-9.21447
▁wild	-9.21584
ment	-9.21607
▁room	-9.21617
▁card	-9.22285
▁anyway	-9.2239
▁her	-9.22643
▁above	-9.22937
▁block	-9.2309
▁sky	-9.23229
▁upon	-9.23373
▁struggle	-9.23484
▁pull	-9.23759
▁store	-9.23897
▁combine	-9.24173
▁result	-9.24311
▁ta	-9.24583
▁initial	-9.24727
▁eventually	-9.24734
▁strategic	-9.25001
▁concept	-9.25032
▁towards	-9.25054
▁lie	-9.25348
▁interaction	-9.25449
ance	-9.25466
▁significant	-9.25586
▁copy	-9.25605
▁additional	-9.25625
▁max	-9.25689
▁guide	-9.25705
▁direction	-9.25715
▁third	-9.25845
▁potter	-9.25986
▁appeal	-9.25992
▁legend	-9.26121
▁stun	-9.26167
▁universe	-9.26268
▁flaw	-9.26451
▁standard	-9.26554
▁victoria	-9.26834
▁form	-9.26845
▁expensive	-9.26976
▁don	-9.27221
▁min	-9.27382
▁creature	-9.27403
▁creative	-9.27404
▁particular	-9.27413
▁mix	-9.27466
▁harry	-9.27548
▁per	-9.27623
▁enhance	-9.27882
▁youtube	-9.27929
▁nation	-9.27952
▁conclusion	-9.2812
▁share	-9.28127
▁restart	-9.28207
▁crap	-9.2856
▁older	-9.28672
▁decade	-9.28842
▁specific	-9.28859
▁air	-9.28904
▁app	-9.28911
w	-9.28971
▁clearly	-9.29534
▁complaint	-9.29758
▁suppose	-9.29776
▁playthrough	-9.29978
▁activity	-9.30019
▁optimization	-9.303
▁depend	-9.30376
▁beginning	-9.30745
▁joy	-9.30765
▁optimize	-9.30806
▁terrarium	-9.3089
▁dog	-9.31008
▁connection	-9.31078
▁increase	-9.31091
▁useless	-9.31092
▁social	-9.3122
▁rush	-9.31334
▁favourite	-9.31483
▁disconnect	-9.31631
▁willing	-9.31777
▁address	-9.3178
▁dodge	-9.31781
▁expand	-9.31781
▁personal	-9.31837
▁roll	-9.31862
▁house	-9.31973
▁human	-9.32063
x	-9.32069
▁sim	-9.32105
▁parry	-9.32233
▁practice	-9.32529
▁suggest	-9.32644
▁respawn	-9.32679
▁hack	-9.32712
▁blow	-9.32835
▁valley	-9.32981
▁receive	-9.33133
▁ready	-9.33205
▁catch	-9.33304
an	-9.33317
▁manager	-9.33393
▁lower	-9.33405
▁rock	-9.33426
▁micro	-9.33434
▁diverse	-9.33748
u	-9.33788
▁technical	-9.33891
▁disappoint	-9.34042
▁repeat	-9.34343
▁alive	-9.34388
▁home	-9.34457
▁glad	-9.34502
▁round	-9.34503
▁grindy	-9.34644
▁combo	-9.34809
▁wide	-9.34814
▁note	-9.34877
▁situation	-9.34934
▁wo	-9.35232
▁skip	-9.35271
se	-9.35352
▁chase	-9.35426
▁royale	-9.35443
▁grand	-9.35451
▁heavy	-9.3558
▁essential	-9.35596
▁hat	-9.35636
▁likely	-9.35835
▁pre	-9.3589
▁respect	-9.35893
ry	-9.35906
▁date	-9.36011
▁enjoyment	-9.36025
▁active	-9.36453
▁total	-9.36453
▁vi	-9.36642
▁entirely	-9.36675
▁laugh	-9.36952
▁notice	-9.36979
▁buck	-9.37154
▁location	-9.37299
▁hang	-9.37302
▁rocket	-9.37322
▁sadly	-9.3737
▁cave	-9.37468
et	-9.37602
▁mistake	-9.37615
▁press	-9.37791
▁dumb	-9.37932
▁cheap	-9.38148
▁fromsoft	-9.38249
▁family	-9.38249
▁offline	-9.38468
▁self	-9.38574
▁charm	-9.38623
▁perfectly	-9.38649
▁road	-9.38728
▁vari	-9.38868
▁delete	-9.39048
sides	-9.39263
▁ur	-9.39278
▁dis	-9.39444
▁rpg	-9.3966
▁physic	-9.39803
▁internet	-9.39853
▁wow	-9.39864
▁saw	-9.40032
▁hr	-9.40245
▁surprise	-9.40255
▁modded	-9.4034
▁appear	-9.40502
▁mine	-9.40658
▁ensure	-9.40665
▁somewhat	-9.40665
▁gold	-9.40709
▁randomly	-9.41287
▁complain	-9.41433
▁desktop	-9.41483
▁scary	-9.41539
▁farming	-9.4177
▁poorly	-9.42068
▁dream	-9.42143
▁opponent	-9.42308
▁sekiro	-9.42308
▁magic	-9.42455
▁appreciate	-9.42474
▁shark	-9.42474
▁serious	-9.42868
▁mouse	-9.42974
▁equipment	-9.42976
▁hi	-9.42987
▁explain	-9.4314
▁scream	-9.43148
▁monetization	-9.43475
▁audio	-9.43643
▁properly	-9.43647
▁narrative	-9.43811
▁punish	-9.43821
▁implement	-9.43917
▁bar	-9.44062
▁cross	-9.44141
▁melee	-9.44149
▁management	-9.44175
▁present	-9.4431
▁dinosaur	-9.44455
▁suffer	-9.44514
▁greedy	-9.44571
▁solve	-9.44641
▁interested	-9.44671
▁hide	-9.44699
▁spot	-9.44835
▁information	-9.44997
ll	-9.45086
▁million	-9.45168
▁giant	-9.45507
▁playtime	-9.45676
▁material	-9.45678
▁duty	-9.4568
▁task	-9.4568
▁harder	-9.45878
▁swing	-9.45898
▁sequel	-9.46022
▁g	-9.46106
▁refus	-9.46399
cy	-9.465
▁path	-9.46544
▁wise	-9.46556
▁throughout	-9.46766
▁pain	-9.46848
▁tedious	-9.47059
▁twice	-9.47233
▁none	-9.47301
▁prepare	-9.47333
▁suit	-9.47554
▁customer	-9.4768
▁apart	-9.47747
▁veteran	-9.47756
▁impressive	-9.47758
es	-9.47971
▁fighter	-9.48043
▁challenging	-9.48107
▁didnt	-9.48122
▁ping	-9.48214
▁send	-9.48322
▁simulation	-9.48459
▁ranked	-9.48562
▁background	-9.48635
▁freedom	-9.48817
▁steep	-9.48989
▁confuse	-9.49083
▁handle	-9.49161
ily	-9.49202
▁fit	-9.49241
▁approach	-9.49344
ar	-9.49462
ch	-9.49654
▁plot	-9.49694
▁keyboard	-9.49702
▁front	-9.49721
▁meta	-9.49727
▁honest	-9.49859
▁faster	-9.49929
▁w	-9.5013
▁custom	-9.50268
▁abandon	-9.50406
▁rage	-9.50521
▁relaxing	-9.50545
▁possibility	-9.50596
▁immediately	-9.50621
▁speak	-9.50807
▁regular	-9.51227
▁creativity	-9.51319
z	-9.51336
▁charge	-9.51482
▁daily	-9.51503
▁detailed	-9.51568
▁studio	-9.51682
▁cute	-9.51723
▁child	-9.52039
▁sink	-9.52049
▁zero	-9.52413
▁mobile	-9.52597
till	-9.5274
▁trade	-9.52923
▁difference	-9.52969
▁sta	-9.52982
▁imo	-9.53209
▁port	-9.53253
▁slightly	-9.53404
▁trial	-9.53534
▁isnt	-9.53543
▁tactic	-9.53744
▁robot	-9.53878
▁landscape	-9.5389
▁sudden	-9.5389
▁corner	-9.539
▁aside	-9.54049
▁question	-9.54219
▁army	-9.54328
▁impact	-9.54632
▁queue	-9.54638
▁search	-9.54825
▁movie	-9.55013
▁newcomer	-9.55389
▁encourage	-9.5541
▁instal	-9.55525
▁russian	-9.55591
ive	-9.55704
▁layer	-9.55831
▁scratch	-9.55958
▁creator	-9.55958
▁animal	-9.56148
▁squad	-9.56148
▁euro	-9.56322
▁frustration	-9.56338
▁relationship	-9.56339
▁host	-9.56509
▁cry	-9.56596
ify	-9.56714
▁steal	-9.56903
▁doubt	-9.56912
▁boy	-9.5692
▁stutter	-9.56945
▁empty	-9.57489
▁shitty	-9.57906
▁unlike	-9.58002
▁hardcore	-9.58072
▁travel	-9.58161
▁satisfying	-9.58221
▁laptop	-9.58263
▁stealth	-9.58354
▁session	-9.58458
▁health	-9.58543
▁sign	-9.58636
▁legacy	-9.58653
▁shut	-9.58659
▁thought	-9.58664
▁majority	-9.58873
▁view	-9.58912
▁crafting	-9.59037
▁mark	-9.59096
▁smash	-9.5924
▁enter	-9.59242
▁slowly	-9.59244
▁track	-9.59448
▁machine	-9.59624
re	-9.59631
▁stray	-9.59633
▁unable	-9.59862
▁sleep	-9.60032
▁gather	-9.60074
▁interact	-9.60183
▁clunky	-9.60226
▁rough	-9.60226
▁battlepass	-9.6024
▁role	-9.60407
▁opportunity	-9.60424
▁realism	-9.6044
▁process	-9.6061
▁middle	-9.60625
▁pop	-9.60626
▁objective	-9.60751
▁everywhere	-9.60822
▁gain	-9.60825
▁food	-9.61022
▁sub	-9.61221
▁blend	-9.61226
▁burn	-9.61263
▁behavior	-9.61422
▁military	-9.61623
▁sport	-9.61633
▁dialogue	-9.62027
▁hot	-9.62118
▁customize	-9.62153
▁k	-9.62453
age	-9.62507
▁rob	-9.62547
▁function	-9.62627
▁reality	-9.6273
line	-9.62827
▁sh	-9.6284
▁escape	-9.62856
▁inventory	-9.63041
▁br	-9.63219
▁gamers	-9.63427
▁gem	-9.63449
▁tame	-9.63458
▁gunplay	-9.63464
▁edge	-9.63655
▁freeze	-9.63894
▁infinite	-9.63998
▁n	-9.64046
▁code	-9.64075
▁peak	-9.64272
sh	-9.64299
▁fairly	-9.64467
▁edition	-9.64553
▁tough	-9.64706
▁transaction	-9.64892
at	-9.65082
▁vanilla	-9.65308
▁regardless	-9.65344
▁hopefully	-9.65549
▁navigate	-9.65733
▁public	-9.65936
▁lethal	-9.66146
▁inside	-9.6626
▁ninja	-9.66357
▁son	-9.66495
▁rid	-9.66632
▁hello	-9.66635
▁size	-9.66715
▁dive	-9.66747
▁entry	-9.66793
▁common	-9.66804
ingly	-9.66856
▁certainly	-9.66984
▁stunning	-9.66994
▁obviously	-9.67228
▁gamer	-9.67282
▁cheating	-9.67325
▁x	-9.67411
▁beginner	-9.67416
▁spoiler	-9.67467
▁vibe	-9.67633
▁loss	-9.67934
▁tire	-9.67975
▁shape	-9.68272
▁ase	-9.68276
▁dinos	-9.68385
▁capture	-9.68497
▁shadow	-9.68561
▁ten	-9.68571
▁solution	-9.68702
man	-9.68703
▁csgo	-9.68704
tic	-9.68768
▁apparently	-9.692
▁club	-9.69569
▁powerful	-9.69582
▁fortnite	-9.69787
▁economic	-9.69873
▁plane	-9.70212
▁iron	-9.70434
▁involve	-9.70578
▁nature	-9.70671
▁captivate	-9.70883
▁plague	-9.70883
▁bigger	-9.70976
▁endgame	-9.71116
▁medium	-9.71171
▁instantly	-9.71214
▁whenever	-9.71244
▁anticheat	-9.7133
▁tactical	-9.71499
icrotransactions	-9.71528
▁source	-9.71567
us	-9.7168
▁boot	-9.71733
▁idk	-9.71789
▁recomend	-9.7191
▁welcome	-9.71992
▁input	-9.71992
▁red	-9.72069
▁greed	-9.72121
▁comment	-9.72211
arious	-9.7223
▁consistently	-9.72392
▁treat	-9.7243
▁replace	-9.72435
▁blood	-9.72439
▁ram	-9.7247
▁auto	-9.72659
▁period	-9.72662
▁tech	-9.72664
▁multi	-9.72738
▁limited	-9.73045
▁rule	-9.73115
▁downside	-9.73262
ate	-9.73499
▁field	-9.73676
▁screw	-9.73791
▁demand	-9.73792
ur	-9.73902
▁carry	-9.74045
▁immersion	-9.74247
▁siege	-9.74247
▁snail	-9.74247
▁spent	-9.74248
ter	-9.74278
▁school	-9.74505
▁chaos	-9.74704
▁project	-9.74705
▁id	-9.74832
▁onto	-9.74901
▁potato	-9.74933
▁coop	-9.74949
▁industry	-9.75163
ary	-9.75274
▁worry	-9.75397
▁disappointing	-9.75488
▁anyways	-9.75977
▁historical	-9.76088
▁laggy	-9.76091
▁among	-9.76321
▁setup	-9.76332
▁business	-9.76554
▁zone	-9.76555
▁sorry	-9.76665
▁camera	-9.76787
▁fluid	-9.77009
▁prevent	-9.77022
▁shop	-9.77094
▁disable	-9.77213
▁era	-9.7725
▁immerse	-9.77256
▁victory	-9.77256
▁stage	-9.77281
▁research	-9.77492
▁entertain	-9.77797
▁possibly	-9.77964
▁utter	-9.77965
▁cuz	-9.77965
▁unit	-9.78072
▁warn	-9.78172
▁reccomend	-9.78358
▁teamwork	-9.78457
▁fm	-9.78514
▁complexity	-9.78702
▁necessary	-9.78707
▁soo	-9.78771
▁fortress	-9.78915
v	-9.79134
▁playerbase	-9.79154
▁separate	-9.79183
▁dr	-9.79346
▁camp	-9.79528
▁library	-9.79634
▁discount	-9.79635
▁interactive	-9.79644
▁heavily	-9.79657
▁rip	-9.79874
▁stress	-9.80112
▁infinity	-9.80117
▁storytelling	-9.80117
▁alright	-9.80117
▁wheel	-9.80139
▁advance	-9.80592
▁draw	-9.80601
▁fi	-9.80711
▁obvious	-9.80817
▁driver	-9.80827
▁door	-9.81034
▁leon	-9.81089
▁nor	-9.81245
um	-9.81293
▁foot	-9.81333
▁virtual	-9.81334
▁cooperative	-9.81335
▁stats	-9.81383
▁dedicate	-9.81497
▁data	-9.81789
ne	-9.81791
▁purpose	-9.81824
▁bullet	-9.81826
▁fish	-9.81965
▁singleplayer	-9.82079
▁color	-9.82313
▁helpful	-9.82355
▁mile	-9.82379
▁mad	-9.82728
▁def	-9.82996
ish	-9.82999
▁safe	-9.83051
▁scale	-9.83062
▁popular	-9.833
▁hurt	-9.83312
▁expectation	-9.83403
▁mycareer	-9.83561
▁complicate	-9.83728
▁risk	-9.83812
▁moon	-9.83823
▁typical	-9.84063
▁silly	-9.84064
▁book	-9.84126
▁newer	-9.84206
▁familiar	-9.84315
▁warfare	-9.84315
▁monitor	-9.84568
▁desire	-9.84905
▁mh	-9.84907
dden	-9.85096
▁theme	-9.85124
▁regard	-9.85125
▁seek	-9.85177
▁boost	-9.85182
▁section	-9.8533
▁lovely	-9.85465
▁remind	-9.85488
▁sick	-9.85829
▁target	-9.8584
▁communication	-9.8584
▁defeat	-9.86096
▁engaging	-9.86096
▁six	-9.86101
▁web	-9.86181
▁ascend	-9.86271
th	-9.86303
▁profit	-9.86325
▁relative	-9.86353
▁bomb	-9.86508
▁intuitive	-9.86692
▁reinstall	-9.8687
▁tweak	-9.8687
▁roster	-9.86874
▁maintain	-9.86874
▁mental	-9.87103
▁bullshit	-9.87129
▁patience	-9.87388
▁generate	-9.87537
▁doubl	-9.87671
▁cover	-9.87672
ff	-9.87798
▁advantage	-9.8791
▁feedback	-9.87911
▁hardware	-9.87918
▁rng	-9.8792
▁wipe	-9.87924
▁excitement	-9.87933
▁polish	-9.8809
▁sea	-9.88127
▁spam	-9.88154
▁wildcard	-9.88172
▁requirement	-9.88223
▁buff	-9.88335
▁overwhelming	-9.88349
▁exploit	-9.88417
▁hilarious	-9.88434
▁lazy	-9.88434
▁making	-9.88434
▁uninstall	-9.88457
▁enigma	-9.88697
▁trading	-9.88697
▁spec	-9.88717
▁operator	-9.88962
▁dislike	-9.88963
▁achieve	-9.88964
▁hey	-9.89195
▁affect	-9.89226
▁weak	-9.89401
▁proper	-9.89549
▁teach	-9.89657
▁mixed	-9.89917
▁fighting	-9.89943
el	-9.90146
▁neglect	-9.90291
▁fear	-9.90302
▁town	-9.90401
▁aesthetic	-9.90559
▁bonus	-9.90559
▁overwhelm	-9.90563
▁sweat	-9.9085
▁reset	-9.91012
▁defend	-9.91053
▁anime	-9.91098
▁og	-9.91264
▁ya	-9.9143
▁ill	-9.91435
▁mainly	-9.91945
▁perhaps	-9.92183
▁further	-9.92186
▁structure	-9.92266
way	-9.92368
▁animate	-9.92458
▁region	-9.92464
▁arena	-9.92466
▁buying	-9.92602
ably	-9.92635
▁o	-9.92675
▁exciting	-9.9273
▁frequent	-9.92732
▁script	-9.92757
▁ex	-9.92993
▁generation	-9.93014
▁page	-9.93046
▁gift	-9.93284
▁activision	-9.93561
ally	-9.93575
▁nba	-9.93834
▁rampant	-9.93835
▁consume	-9.94089
▁admit	-9.94111
▁nobody	-9.94111
▁fromsoftware	-9.94391
▁spirit	-9.94669
▁ocean	-9.9495
▁disappointed	-9.951
▁warzone	-9.9523
▁delay	-9.95231
▁paint	-9.95483
▁ride	-9.95484
▁answer	-9.95512
▁strength	-9.95512
▁unfair	-9.95512
▁unbalanced	-9.9553
▁useful	-9.95645
▁anywhere	-9.95794
▁companion	-9.95794
▁fault	-9.95795
▁chinese	-9.96078
▁taste	-9.96078
▁heard	-9.96111
▁train	-9.96206
ful	-9.96249
▁shin	-9.96254
▁body	-9.96362
▁fell	-9.96448
▁combination	-9.96647
▁favor	-9.96653
▁cycle	-9.96707
▁asa	-9.96854
▁wake	-9.96933
▁playstation	-9.96934
▁emotional	-9.96949
▁tend	-9.97044
▁l	-9.97176
▁annoying	-9.973
▁beautifully	-9.97357
▁via	-9.97478
▁blatant	-9.97506
▁memorable	-9.97506
▁cozy	-9.97523
▁magical	-9.97556
▁accept	-9.98055
ize	-9.9806
▁credit	-9.98083
▁gaijin	-9.98083
▁bag	-9.98094
▁mini	-9.98135
▁chapter	-9.98373
▁float	-9.98373
▁earth	-9.98375
▁adrenaline	-9.98376
▁ahead	-9.98542
▁hype	-9.98587
▁gamble	-9.98607
▁gorgeous	-9.98664
out	-9.98933
▁buddy	-9.98956
▁private	-9.98962
▁individual	-9.98973
▁btw	-9.99248
▁texture	-9.9925
▁meaningful	-9.99258
▁h	-9.99467
▁slower	-9.99794
▁local	-9.99835
▁childhood	-9.99838
▁intricate	-9.99841
▁enable	-9.99859
▁girl	-10.0013
▁pixel	-10.0013
▁abuse	-10.0013
▁phenomenal	-10.0014
▁significantly	-10.0041
▁woman	-10.0044
▁occasional	-10.0046
▁prime	-10.0047
▁pointless	-10.0102
side	-10.0104
▁message	-10.0105
▁thumb	-10.0112
go	-10.0113
▁scenario	-10.0132
▁vote	-10.0135
▁tbh	-10.0162
▁gpu	-10.0166
▁creation	-10.0192
▁gate	-10.0208
▁adjust	-10.0221
ctively	-10.0232
▁reduce	-10.0252
▁dogshit	-10.0252
▁crop	-10.0252
▁havent	-10.0256
▁thunder	-10.0273
▁vibrant	-10.0283
▁tip	-10.0296
▁rewarding	-10.0297
▁lay	-10.031
▁adapt	-10.0313
▁dozen	-10.0313
▁vr	-10.0324
▁toxicity	-10.0351
▁select	-10.0372
▁wiki	-10.0374
▁knowledge	-10.0375
ting	-10.0379
▁intend	-10.04
▁subscription	-10.0405
▁infest	-10.0414
▁spending	-10.0419
▁plant	-10.0421
▁describe	-10.0435
▁penny	-10.0435
▁race	-10.0436
▁prove	-10.0445
▁king	-10.0459
▁bc	-10.0465
▁cannibal	-10.0466
▁cpu	-10.0466
▁rift	-10.0466
▁minimum	-10.0497
▁accessible	-10.0529
▁stable	-10.0531
▁claim	-10.0541
▁usage	-10.0565
▁dude	-10.0591
▁cutscenes	-10.06
ia	-10.0609
▁factor	-10.0619
▁disappointment	-10.0624
▁surprisingly	-10.0631
▁hole	-10.0632
▁tick	-10.066
▁program	-10.0664
▁five	-10.0667
▁cook	-10.07
▁frequently	-10.0716
▁nostalgia	-10.0717
▁stack	-10.0717
▁unturned	-10.0748
▁europe	-10.075
▁trap	-10.0755
▁played	-10.0756
die	-10.077
▁strange	-10.0776
▁nowhere	-10.078
▁rainbow	-10.078
▁brilliant	-10.0785
▁originally	-10.0798
▁board	-10.0798
▁diplomacy	-10.0812
▁milk	-10.0813
▁crack	-10.0813
▁arm	-10.0813
▁wood	-10.0839
▁iv	-10.0845
▁castle	-10.0846
▁wallet	-10.0848
▁harvest	-10.0876
ist	-10.0891
▁vac	-10.0908
▁interface	-10.0909
▁battleye	-10.0909
▁scrap	-10.091
▁brother	-10.0911
▁uninstalled	-10.0919
▁rtx	-10.0941
▁flow	-10.0964
▁selection	-10.0977
▁cast	-10.0981
istic	-10.1005
▁paste	-10.1017
▁meh	-10.1042
▁nerf	-10.1048
▁playstyle	-10.1059
▁knock	-10.1072
▁whats	-10.1072
▁ammo	-10.1072
▁standout	-10.1074
▁baby	-10.1105
▁leader	-10.1107
▁link	-10.1108
▁assist	-10.1133
▁absurd	-10.1137
▁tear	-10.114
▁border	-10.117
▁competition	-10.1171
ty	-10.1206
▁transfer	-10.1211
▁scam	-10.1234
▁idiot	-10.1237
▁numer	-10.1237
▁wtf	-10.1237
▁four	-10.1239
▁modders	-10.124
▁net	-10.1242
▁td	-10.1249
▁bro	-10.1253
▁highest	-10.1253
▁political	-10.1271
ut	-10.1273
▁successful	-10.1287
▁aimbot	-10.13
▁compete	-10.1303
▁scar	-10.1323
▁troll	-10.1339
▁personality	-10.1341
▁fc	-10.1341
▁notch	-10.135
▁mmorpg	-10.1352
▁success	-10.1355
▁aware	-10.1367
▁square	-10.1372
▁chore	-10.1372
▁twist	-10.1372
▁nightmare	-10.1373
▁drag	-10.1438
▁commit	-10.1439
▁command	-10.1439
▁trouble	-10.1439
▁teleport	-10.144
▁vary	-10.1443
▁demo	-10.1463
our	-10.1471
▁blame	-10.1474
▁cap	-10.1483
▁tie	-10.1484
▁whil	-10.1486
ability	-10.1503
▁breathtaking	-10.1508
▁equal	-10.1515
▁everytime	-10.152
is	-10.1524
▁normally	-10.1525
▁obtain	-10.1542
▁fr	-10.1545
▁consistent	-10.155
ever	-10.1554
▁garr	-10.1557
▁horde	-10.1577
▁perspective	-10.1577
▁predecessor	-10.1577
▁weekend	-10.1577
▁relate	-10.1577
▁brutal	-10.1581
▁bat	-10.1584
▁recommendation	-10.1584
▁addiction	-10.1589
val	-10.1594
▁experiment	-10.161
▁tiny	-10.1611
▁sweet	-10.1614
▁lucky	-10.1643
▁extensive	-10.1646
▁iconic	-10.1647
▁billion	-10.1648
▁investment	-10.1649
▁predatory	-10.1649
▁lowest	-10.1655
▁morale	-10.1667
▁clean	-10.1672
▁crime	-10.1681
▁fashion	-10.1681
▁busy	-10.1684
▁pile	-10.1685
▁mecha	-10.1696
▁occasionally	-10.1713
▁default	-10.1716
▁introduct	-10.172
▁consumer	-10.1723
▁ass	-10.1727
ma	-10.174
▁spiderman	-10.1754
mo	-10.1758
▁rework	-10.1769
▁entertaining	-10.1774
▁qol	-10.1786
▁piss	-10.1786
▁village	-10.1817
ldr	-10.1821
▁accurate	-10.1821
▁passion	-10.1838
▁holy	-10.184
▁tr	-10.1854
▁weather	-10.1857
▁empire	-10.1857
▁digital	-10.1858
▁leg	-10.1884
▁law	-10.1899
▁playstyles	-10.1914
▁text	-10.1928
▁perform	-10.193
▁publisher	-10.1932
▁sniper	-10.1934
▁blind	-10.1965
ility	-10.1974
ers	-10.1986
▁realm	-10.1987
▁somewhere	-10.2
▁render	-10.2
▁benefit	-10.2001
▁peaceful	-10.2004
▁lover	-10.2061
▁discord	-10.2072
▁practical	-10.2072
▁rig	-10.2073
am	-10.2087
▁defense	-10.2109
▁bundle	-10.2109
▁highlight	-10.211
▁remastered	-10.2114
▁tag	-10.2117
▁collection	-10.2121
▁looter	-10.2133
▁concern	-10.2137
▁literal	-10.2141
ier	-10.2144
▁odd	-10.2162
▁severe	-10.2168
co	-10.2174
▁gmod	-10.2182
▁left	-10.2182
ust	-10.2183
▁ending	-10.2208
▁natural	-10.222
▁position	-10.2237
▁influence	-10.2256
▁entertainment	-10.2257
▁website	-10.2293
▁slot	-10.2293
▁device	-10.2293
▁display	-10.2293
▁legendary	-10.2294
▁sight	-10.2301
▁men	-10.2307
ge	-10.2311
▁request	-10.233
▁mystery	-10.233
▁grandma	-10.2331
▁scenery	-10.2333
▁spread	-10.2334
mp	-10.2338
▁af	-10.2341
▁https	-10.2349
▁marvel	-10.2366
▁enthusiast	-10.2367
▁soccer	-10.2367
▁wife	-10.2367
▁earlier	-10.2367
▁en	-10.2377
▁usual	-10.2377
▁arcade	-10.2405
▁sword	-10.2412
▁bank	-10.2422
▁agree	-10.2441
▁blue	-10.2442
▁condition	-10.2443
▁dino	-10.246
▁beloved	-10.248
▁pirate	-10.248
▁flag	-10.2482
▁invite	-10.2483
▁disgust	-10.2498
▁stronger	-10.2551
▁ha	-10.256
il	-10.2577
▁execute	-10.2594
▁pump	-10.2594
▁brand	-10.2594
▁hp	-10.2595
▁http	-10.2612
ension	-10.2614
▁announce	-10.2632
▁unparalleled	-10.2632
▁wave	-10.2635
ie	-10.2635
▁contribute	-10.2636
nd	-10.2662
▁ver	-10.2662
▁freak	-10.2667
▁rat	-10.2668
▁minimal	-10.2671
▁instance	-10.2671
▁shell	-10.2674
▁smoothly	-10.2694
▁painful	-10.2694
▁guarantee	-10.2709
▁raise	-10.2709
▁rp	-10.2716
▁seasonal	-10.2728
▁regularly	-10.2729
thus	-10.2733
▁stream	-10.2744
▁comparison	-10.2748
▁responsive	-10.2748
▁loose	-10.2748
▁inspire	-10.2758
▁below	-10.2787
▁dedication	-10.2787
▁commitment	-10.2788
▁satisfaction	-10.2789
ament	-10.28
▁coin	-10.2803
▁bear	-10.2815
▁resolution	-10.2826
▁culture	-10.2826
▁supply	-10.2829
ra	-10.284
▁praise	-10.2865
▁alternative	-10.2865
▁cup	-10.2873
▁cop	-10.2874
▁feed	-10.2874
▁xd	-10.2881
▁mate	-10.2883
▁itch	-10.2891
▁doesn	-10.29
▁expansive	-10.2905
▁network	-10.2905
ue	-10.2914
▁previously	-10.292
▁hub	-10.2942
▁thoroughly	-10.2947
▁weight	-10.296
▁alien	-10.2977
▁gripe	-10.2981
▁chaotic	-10.2984
▁record	-10.2984
▁angry	-10.2984
▁trailer	-10.2987
▁xp	-10.2987
stone	-10.2999
▁ops	-10.3003
▁rely	-10.3019
▁penalty	-10.3024
▁lvl	-10.3026
▁par	-10.3029
▁atleast	-10.3064
▁specifically	-10.3065
▁assum	-10.3097
▁audience	-10.3104
▁flash	-10.3104
▁ashley	-10.3104
▁legit	-10.3105
▁graphical	-10.3123
▁bottom	-10.3144
▁excuse	-10.3144
▁response	-10.3144
▁cold	-10.3147
▁goofy	-10.3148
▁alt	-10.3166
▁faith	-10.3179
ant	-10.3182
▁formula	-10.3185
▁nowadays	-10.3185
▁resolve	-10.3185
▁diversity	-10.3185
▁distance	-10.3185
▁inconsistent	-10.3186
▁calm	-10.3209
▁ups	-10.3211
▁ceiling	-10.3225
▁ultra	-10.3266
▁deflect	-10.3266
▁unacceptable	-10.3267
▁politics	-10.3267
▁award	-10.3302
▁produce	-10.3307
▁advice	-10.3307
▁shift	-10.3311
▁nail	-10.3311
▁germany	-10.3311
▁smurfs	-10.3316
▁comp	-10.3317
▁recommended	-10.3342
▁stale	-10.3351
▁workable	-10.3358
▁wing	-10.3375
▁asset	-10.3383
▁sake	-10.339
▁pathetic	-10.3391
▁smaller	-10.3412
▁mmos	-10.3426
▁alike	-10.3449
▁directly	-10.3455
▁exceptional	-10.3467
▁expedition	-10.3473
▁mediocre	-10.3473
▁unforgettable	-10.3473
▁soft	-10.3474
▁bland	-10.3476
▁wear	-10.3482
▁tab	-10.351
▁emotion	-10.3512
▁member	-10.3515
▁unnecessary	-10.3518
▁phone	-10.3526
▁tl	-10.3529
▁playthroughs	-10.353
▁surface	-10.3557
▁crew	-10.3557
▁sanity	-10.3557
▁ps	-10.3557
▁verify	-10.3557
▁paywall	-10.3571
▁peace	-10.3594
▁contact	-10.3599
▁hungry	-10.3599
▁dbd	-10.3599
▁confident	-10.3599
▁ffxiv	-10.3599
▁convince	-10.3613
▁randoms	-10.3621
▁ne	-10.3637
▁floor	-10.3641
▁outstanding	-10.3641
▁warframes	-10.3655
ap	-10.3675
▁hardest	-10.3681
▁outdated	-10.3684
▁weekly	-10.3686
▁slap	-10.3687
▁strongly	-10.3698
▁lmao	-10.3726
▁tackle	-10.3727
▁addons	-10.373
play	-10.3731
▁badly	-10.3748
▁se	-10.3765
▁horrendous	-10.3769
▁racist	-10.3769
▁linear	-10.3775
▁mechs	-10.3797
▁clue	-10.3808
▁driving	-10.3812
▁platinum	-10.3812
▁visit	-10.3812
▁storage	-10.3812
▁premier	-10.3856
▁daylight	-10.3858
▁realise	-10.3859
▁updated	-10.3892
ber	-10.3894
over	-10.3895
▁naked	-10.3899
▁flip	-10.3902
▁ch	-10.3902
ot	-10.3934
▁occur	-10.3943
▁forum	-10.3945
ka	-10.3947
▁threat	-10.3986
▁beauty	-10.3987
▁summar	-10.3987
▁irl	-10.3987
▁navy	-10.3988
▁optional	-10.3992
▁sci	-10.4007
▁effectively	-10.4012
▁wit	-10.4033
▁center	-10.4039
▁la	-10.4073
▁radio	-10.4075
▁tune	-10.4089
▁loading	-10.4093
▁mob	-10.41
▁mar	-10.4101
ag	-10.4105
▁extend	-10.412
▁nostalgic	-10.412
▁critical	-10.4133
▁pet	-10.4147
▁google	-10.4164
▁quota	-10.4164
▁sunbreak	-10.4165
▁ma	-10.4169
▁ppl	-10.4201
▁grinding	-10.4207
▁treasure	-10.4209
▁insult	-10.4209
▁motion	-10.4209
▁grass	-10.4209
▁spin	-10.4219
▁park	-10.4222
▁pls	-10.4223
▁replayable	-10.4224
▁serve	-10.4249
om	-10.4252
▁english	-10.4254
▁global	-10.4254
▁email	-10.4254
▁unreal	-10.4255
▁warrior	-10.4257
▁sweaty	-10.4273
▁street	-10.4299
▁compelling	-10.4299
▁consequence	-10.43
▁cater	-10.4307
▁prop	-10.431
ship	-10.4312
▁training	-10.4325
▁balanced	-10.434
▁crisis	-10.4345
▁cyberpunk	-10.4345
▁reflect	-10.4345
▁spare	-10.4345
▁timeless	-10.4371
▁moba	-10.4373
▁ingame	-10.4377
▁heal	-10.4387
▁rival	-10.439
▁shotgun	-10.439
▁neat	-10.4391
▁dangerous	-10.4392
▁seamless	-10.4409
▁lame	-10.4413
▁picture	-10.4436
▁danger	-10.4438
time	-10.4445
▁correct	-10.4455
▁terrify	-10.4468
▁conquer	-10.4482
▁living	-10.4482
▁steamdeck	-10.4482
▁unfinished	-10.4482
▁versus	-10.4482
▁tight	-10.4483
▁gb	-10.4487
▁spamming	-10.4489
▁polished	-10.4497
▁hire	-10.4512
run	-10.4528
▁thrive	-10.4529
▁royal	-10.457
▁false	-10.4575
▁meticulous	-10.4575
▁policy	-10.4575
▁tunnel	-10.4575
▁janky	-10.4583
▁fishing	-10.4605
▁spoil	-10.4611
▁witch	-10.4613
▁champion	-10.4625
▁everyday	-10.4637
▁careful	-10.4649
▁sole	-10.4655
▁breath	-10.4655
▁bare	-10.4667
▁degree	-10.4669
▁swear	-10.4669
▁loud	-10.4669
▁essence	-10.4669
▁row	-10.4669
▁ada	-10.4685
boxes	-10.4704
▁overcome	-10.4716
▁phase	-10.4716
▁corporate	-10.4716
▁exit	-10.4718
▁meter	-10.4725
▁genuine	-10.4737
be	-10.4758
▁pattern	-10.4763
▁smoke	-10.4763
▁spike	-10.4763
▁discovery	-10.4765
▁status	-10.4766
▁dance	-10.4772
▁shield	-10.4811
▁pair	-10.4811
ence	-10.4812
▁iteration	-10.4812
▁j	-10.4814
▁rot	-10.4832
▁casually	-10.4833
▁direct	-10.4855
▁anybody	-10.4859
▁kingdom	-10.4859
▁ugly	-10.4859
▁boat	-10.4859
▁span	-10.486
▁beast	-10.4861
▁lu	-10.4883
▁effective	-10.4888
▁stagger	-10.4907
▁riddle	-10.4907
▁worthy	-10.4913
ile	-10.4918
▁nerfed	-10.4919
▁trip	-10.4924
▁object	-10.4955
▁corrupt	-10.4955
▁disappear	-10.4955
▁multiversus	-10.4955
▁settle	-10.4956
ul	-10.497
▁aggressive	-10.4976
▁dig	-10.4978
▁drink	-10.4988
▁info	-10.4997
▁downgrade	-10.5004
▁lackluster	-10.5004
▁heck	-10.5006
▁y	-10.5009
▁refresh	-10.5014
▁npcs	-10.5033
▁white	-10.5036
▁apply	-10.5047
▁completion	-10.5052
▁split	-10.5053
▁unstable	-10.5053
▁stuck	-10.5053
▁mass	-10.5053
▁fuel	-10.5055
▁reload	-10.5056
▁stranger	-10.5059
▁squ	-10.5074
▁shooting	-10.5094
▁ni	-10.51
▁roam	-10.5102
▁technology	-10.5102
▁dull	-10.5102
▁mood	-10.5103
▁li	-10.5115
▁fee	-10.512
▁arent	-10.5124
uck	-10.5148
▁surround	-10.5151
▁transform	-10.5151
▁innovation	-10.5152
▁duo	-10.5152
▁stressful	-10.5152
as	-10.5157
▁z	-10.516
▁ti	-10.5168
ple	-10.5185
▁vic	-10.5189
▁percent	-10.52
▁climb	-10.52
▁pleasant	-10.52
▁whatsoever	-10.52
▁ticket	-10.5202
▁roleplay	-10.5205
▁dare	-10.521
▁deeper	-10.5224
▁table	-10.5227
▁steer	-10.5234
▁trick	-10.5239
▁di	-10.5241
▁flat	-10.5243
▁alpha	-10.525
▁flesh	-10.525
▁superior	-10.525
▁punch	-10.5251
▁compel	-10.5251
▁priority	-10.5251
▁viable	-10.526
▁em	-10.5264
▁overhaul	-10.53
▁overwatch	-10.53
▁station	-10.5304
▁pe	-10.5315
▁route	-10.5326
▁ally	-10.5332
▁frank	-10.5349
▁green	-10.5351
▁balancing	-10.5352
▁shine	-10.5358
▁functional	-10.5361
ought	-10.5367
▁contain	-10.5391
▁distinct	-10.5401
▁everybody	-10.5401
▁recoil	-10.5401
▁dragon	-10.5403
▁dedicated	-10.5418
▁gathering	-10.5441
▁unforgiv	-10.5449
▁confusing	-10.5452
▁criticism	-10.5452
▁acquire	-10.5452
▁slur	-10.5452
use	-10.5473
▁tap	-10.5475
▁cent	-10.5479
▁exhilarat	-10.5487
▁method	-10.5498
▁si	-10.5501
▁knife	-10.5503
▁application	-10.5503
▁vision	-10.5509
of	-10.5525
ng	-10.5534
▁behaviour	-10.5554
▁language	-10.5554
▁root	-10.5554
▁gap	-10.5557
rt	-10.5557
ze	-10.5558
▁production	-10.5568
▁ip	-10.5576
day	-10.5581
▁awhile	-10.5605
▁excel	-10.5605
▁pause	-10.5606
▁harsh	-10.5606
la	-10.5608
▁comfort	-10.5615
▁protect	-10.5652
▁gadget	-10.5657
▁gimmick	-10.5657
▁vault	-10.5657
▁china	-10.5657
▁failure	-10.5659
tedly	-10.5661
▁triple	-10.5666
▁bright	-10.5703
▁prior	-10.5708
▁unpredictable	-10.571
▁partner	-10.571
▁pressure	-10.571
▁uninstalling	-10.5741
▁gener	-10.576
▁energy	-10.5762
▁finger	-10.5762
▁customisation	-10.5762
▁egg	-10.5762
▁apocalypse	-10.5763
▁perfection	-10.5813
▁contract	-10.5815
▁layout	-10.5815
▁wander	-10.5818
im	-10.5833
▁friendship	-10.5835
▁dry	-10.5848
▁attach	-10.5866
▁advise	-10.5867
▁fellow	-10.5868
▁questionable	-10.5875
ical	-10.5898
cient	-10.5901
▁soulslike	-10.5901
▁scare	-10.5902
▁drain	-10.592
▁filter	-10.592
▁profile	-10.592
▁headshot	-10.5921
▁exception	-10.5949
▁cinematic	-10.5954
▁atmospheric	-10.5974
▁unfun	-10.5974
▁smart	-10.5977
▁plain	-10.6
▁cancer	-10.6027
▁mount	-10.6028
▁security	-10.6028
▁stability	-10.6038
▁crashing	-10.6045
land	-10.6049
▁thinking	-10.607
bo	-10.6076
▁pound	-10.6082
▁operation	-10.6082
▁isn	-10.6083
ol	-10.6083
▁farmer	-10.6102
▁meaning	-10.6109
▁bros	-10.6114
▁badge	-10.6134
▁afraid	-10.6136
▁aswell	-10.6136
▁compatibility	-10.6136
▁clip	-10.6136
▁semi	-10.6136
▁tower	-10.6137
▁ca	-10.6146
▁instant	-10.6164
capable	-10.6182
▁starter	-10.619
▁writing	-10.6191
▁atrocious	-10.6191
▁integrity	-10.6191
▁drug	-10.6191
▁revolution	-10.6192
▁da	-10.6192
▁emphasis	-10.6198
▁shock	-10.6204
▁district	-10.6246
▁neither	-10.6246
▁customizable	-10.6246
▁miserable	-10.6249
▁mic	-10.6267
▁afford	-10.6298
▁license	-10.6301
▁superhero	-10.6301
▁template	-10.6301
▁tournament	-10.6301
▁american	-10.6303
▁reference	-10.6304
▁cheese	-10.6311
▁wizarding	-10.6312
▁fat	-10.6334
▁offering	-10.6347
▁vs	-10.6348
▁remaster	-10.635
▁sun	-10.6352
▁express	-10.6353
▁obsess	-10.6357
oppose	-10.6366
array	-10.6375
▁inter	-10.6394
▁horribly	-10.6412
▁respond	-10.6412
▁unmatched	-10.6412
▁client	-10.6412
▁nonsense	-10.6413
▁innovative	-10.6413
▁imagination	-10.6413
▁legitimate	-10.6413
▁dump	-10.6413
▁procedural	-10.6419
▁thrilling	-10.6429
▁skilled	-10.6447
▁west	-10.6448
▁optimise	-10.646
▁smoother	-10.6467
▁student	-10.6469
▁proceed	-10.6469
▁quirk	-10.6469
▁rain	-10.6469
▁clan	-10.6477
▁pot	-10.6479
▁wind	-10.6502
▁greatly	-10.6516
▁kernel	-10.6525
▁succeed	-10.6525
▁newbie	-10.6525
▁fomo	-10.6525
▁fool	-10.6526
▁warm	-10.6527
▁equip	-10.6535
▁hostil	-10.6536
▁invade	-10.6556
que	-10.6563
▁ho	-10.657
▁communicate	-10.6582
▁murder	-10.6582
▁reputation	-10.6582
▁silver	-10.6582
▁mmr	-10.6582
▁blueprint	-10.6582
▁chicken	-10.6582
ure	-10.6583
▁slog	-10.6586
▁tri	-10.6596
▁bone	-10.6598
ping	-10.6599
▁impress	-10.6602
ies	-10.6616
▁overprice	-10.6631
▁category	-10.6639
▁fundamental	-10.6639
▁rifle	-10.6639
▁paper	-10.6639
▁trait	-10.6639
▁golden	-10.6643
▁scavenge	-10.6646
▁endure	-10.6647
▁didn	-10.6691
▁young	-10.6692
▁accidentally	-10.6697
▁collectible	-10.6697
▁professional	-10.6701
▁variation	-10.6702
one	-10.6713
▁added	-10.6737
▁former	-10.6738
▁repair	-10.6756
▁storm	-10.6759
▁wb	-10.676
▁ash	-10.6796
▁upset	-10.6808
right	-10.681
▁diamond	-10.6812
▁indeed	-10.6812
▁mountain	-10.6812
▁bias	-10.6813
▁detract	-10.6813
▁nope	-10.6813
▁beach	-10.6813
▁fut	-10.6818
oast	-10.6825
▁gamemodes	-10.6829
▁meme	-10.6839
▁cheaper	-10.6849
ent	-10.6851
▁warning	-10.6854
▁image	-10.6857
▁experienced	-10.6866
▁icon	-10.6866
▁russia	-10.6867
▁mutant	-10.6871
▁nintendo	-10.6871
▁bloat	-10.6871
▁adore	-10.6871
▁mask	-10.6871
▁shallow	-10.6871
▁foundation	-10.6872
▁existence	-10.6873
▁wasnt	-10.6873
▁got	-10.6883
▁refine	-10.6885
to	-10.6885
▁ck	-10.6901
ga	-10.6913
▁loyal	-10.6929
▁guard	-10.693
▁archetype	-10.693
▁pray	-10.693
▁automatically	-10.693
▁mhw	-10.6932
ling	-10.6933
▁impression	-10.6933
▁streamer	-10.6945
▁plat	-10.6969
▁th	-10.6974
▁elevate	-10.6978
▁breathe	-10.6986
▁therefore	-10.6989
▁glory	-10.6989
▁nuke	-10.6989
▁hair	-10.6989
▁site	-10.6994
▁lord	-10.7003
▁continuously	-10.7008
▁hill	-10.701
▁overpower	-10.7015
▁exp	-10.7022
ov	-10.7032
▁accomplish	-10.7047
▁criminal	-10.7048
▁opposite	-10.7048
▁police	-10.7048
▁outfit	-10.7048
▁titanfall	-10.7048
▁arc	-10.7049
▁pool	-10.705
▁preference	-10.705
▁dear	-10.7052
ble	-10.7066
code	-10.707
▁bored	-10.7075
tion	-10.7092
na	-10.7093
ta	-10.7094
ke	-10.7102
▁anger	-10.7105
▁mysterious	-10.7108
▁pretend	-10.7108
▁spectacular	-10.7108
▁remote	-10.7108
▁installment	-10.7113
▁patient	-10.7114
▁enix	-10.7114
▁existent	-10.712
▁curse	-10.7168
▁apocalyp	-10.7168
▁intrigue	-10.7169
▁uncover	-10.7169
set	-10.717
▁afk	-10.7171
▁package	-10.7173
▁folk	-10.7179
▁fence	-10.7182
▁kit	-10.7184
ted	-10.7202
ian	-10.7205
▁logic	-10.7211
▁hunger	-10.7229
md	-10.7235
▁gran	-10.7246
▁dominate	-10.7248
▁trucking	-10.7258
nce	-10.7279
▁ghost	-10.729
▁pleasure	-10.729
▁swap	-10.729
▁labor	-10.729
▁zoom	-10.7291
▁pit	-10.7293
▁mere	-10.731
▁meow	-10.7317
▁harm	-10.7321
▁unfortunate	-10.7326
▁addicting	-10.7327
▁beware	-10.7329
lo	-10.7346
▁decline	-10.7352
▁builder	-10.7352
nk	-10.7353
▁measure	-10.7353
▁tense	-10.7354
▁gud	-10.7355
▁ranking	-10.7356
id	-10.7358
▁actor	-10.7358
▁portion	-10.7363
▁fav	-10.7367
▁defender	-10.7375
me	-10.7399
▁snip	-10.7403
ated	-10.7404
▁acknowledge	-10.7413
▁explanation	-10.7413
▁pilot	-10.7413
▁valorant	-10.7413
▁haha	-10.7413
▁flavor	-10.7415
▁battlefield	-10.7417
▁bots	-10.7425
pass	-10.7435
▁sp	-10.7436
▁length	-10.7464
▁champ	-10.7472
▁furthermore	-10.7475
▁grenade	-10.7475
▁pitch	-10.7476
▁engagement	-10.7487
▁accord	-10.7537
▁execution	-10.7538
▁trigger	-10.7538
▁generator	-10.7538
▁disaster	-10.754
do	-10.7555
oster	-10.756
ow	-10.7561
▁improved	-10.7586
▁register	-10.7601
▁clone	-10.7601
▁european	-10.7602
▁recycle	-10.7604
▁mac	-10.7607
▁owner	-10.7608
▁flexib	-10.7618
▁define	-10.7625
red	-10.7631
▁superb	-10.7632
▁retard	-10.7656
▁helicopter	-10.7664
▁kelvin	-10.7664
▁roblox	-10.7664
▁government	-10.7664
▁drawback	-10.7664
▁mother	-10.7666
▁band	-10.7679
▁metal	-10.7682
ivision	-10.7685
▁permanently	-10.7688
bi	-10.7712
▁confirm	-10.7728
▁establish	-10.7728
▁summer	-10.7728
proxim	-10.7728
▁yell	-10.7728
▁proton	-10.7729
▁graphically	-10.7729
▁correctly	-10.7768
▁cs	-10.7781
▁crush	-10.7792
▁horse	-10.7792
▁sbmm	-10.7792
▁traffic	-10.7792
▁biome	-10.7792
den	-10.7793
ification	-10.7797
ial	-10.7799
▁cutscene	-10.7836
ied	-10.7856
▁authentic	-10.7856
▁circle	-10.7856
▁elsewhere	-10.7856
▁tractor	-10.7856
▁unexpected	-10.7856
▁villain	-10.7856
▁passionate	-10.7857
▁deny	-10.7857
▁chest	-10.7858
▁bitch	-10.7879
▁ease	-10.7886
▁bu	-10.7889
▁react	-10.7899
▁definit	-10.7903
▁surely	-10.7913
▁scheme	-10.7921
▁scout	-10.7922
▁parent	-10.7922
▁theft	-10.7924
▁mining	-10.7929
▁easie	-10.7929
▁fa	-10.7932
▁easter	-10.7937
▁peter	-10.7939
op	-10.7939
▁manually	-10.7943
coming	-10.7944
▁understanding	-10.7967
per	-10.7985
▁population	-10.7987
▁tribe	-10.7987
▁login	-10.7994
▁stock	-10.7998
▁pal	-10.8011
▁cow	-10.8014
kin	-10.8019
▁noob	-10.8032
int	-10.8036
▁grip	-10.8043
▁dlss	-10.8052
▁york	-10.8052
▁torture	-10.8052
▁fake	-10.8053
▁reasonable	-10.8055
▁bird	-10.8058
botting	-10.8063
▁anytime	-10.807
▁seat	-10.8072
▁faction	-10.81
▁st	-10.8113
ism	-10.8115
eeze	-10.8118
▁camaraderie	-10.8119
▁female	-10.8119
▁galaxy	-10.8119
▁pocket	-10.8119
▁capability	-10.8119
▁construction	-10.8121
▁reaction	-10.8122
▁los	-10.8124
▁tale	-10.8124
off	-10.8151
▁fk	-10.8156
rgasm	-10.817
▁urge	-10.8172
▁jank	-10.8176
▁offensive	-10.8185
▁terrain	-10.8185
reddit	-10.8186
▁prioritize	-10.8188
▁traditional	-10.8188
▁implementation	-10.8192
▁dad	-10.8194
▁banger	-10.8197
ny	-10.8201
▁bust	-10.8202
▁meat	-10.8205
▁eu	-10.8212
lly	-10.823
▁closer	-10.8235
▁elite	-10.8252
▁discuss	-10.8252
▁alliance	-10.8252
▁swat	-10.8253
▁endlessly	-10.8256
▁nut	-10.8259
▁terribl	-10.8298
▁german	-10.8313
▁yea	-10.8316
▁shove	-10.8319
▁battleground	-10.832
▁harass	-10.832
▁fond	-10.832
▁crucial	-10.832
▁armour	-10.8321
▁unknown	-10.833
▁garry	-10.8341
ld	-10.8354
▁mindless	-10.8373
ack	-10.8373
▁abysmal	-10.8388
▁employee	-10.8388
▁dynasty	-10.8388
▁grasp	-10.8388
▁stomp	-10.8388
▁attachment	-10.8389
▁cargo	-10.8392
▁bully	-10.8393
▁handful	-10.8393
▁glitchy	-10.8402
▁immense	-10.8429
ning	-10.845
▁unrealistic	-10.8457
▁hosters	-10.8458
▁merge	-10.8458
▁france	-10.8458
▁sand	-10.8459
▁remarkable	-10.8461
▁worthless	-10.8464
▁noise	-10.8479
▁bang	-10.8481
▁optimized	-10.8496
▁speaking	-10.8517
▁malware	-10.8525
▁scummy	-10.8525
▁timing	-10.8526
▁dumpster	-10.8526
▁accomplishment	-10.8527
▁rotation	-10.8529
▁esports	-10.8529
▁cancel	-10.853
▁pl	-10.8585
▁explosi	-10.8593
▁lately	-10.8595
▁context	-10.8595
▁flood	-10.8595
▁nonetheless	-10.8595
▁nu	-10.8595
▁password	-10.8596
▁butt	-10.8596
▁arkham	-10.8596
▁thankfully	-10.8602
ph	-10.8611
▁que	-10.864
▁troop	-10.8641
ck	-10.8647
ization	-10.8658
▁argue	-10.8665
▁guardian	-10.8665
▁ssd	-10.8666
▁corporation	-10.8666
▁daunt	-10.8666
▁ramp	-10.8668
▁bind	-10.8669
▁greater	-10.8682
▁gamemode	-10.8691
ir	-10.8713
▁infect	-10.8723
▁traversal	-10.8735
▁crappy	-10.8735
▁mute	-10.8735
▁excessive	-10.8735
▁reborn	-10.8738
▁sluggi	-10.8741
pi	-10.8761
▁fest	-10.8763
clude	-10.8771
▁persist	-10.8781
▁slight	-10.8783
dict	-10.8787
gu	-10.879
ious	-10.8801
▁discourage	-10.8806
▁incentive	-10.8806
▁neighbor	-10.8806
▁rope	-10.8806
▁study	-10.8806
▁mercenar	-10.8806
▁framerate	-10.8807
▁conflict	-10.8807
▁static	-10.881
▁summon	-10.8847
ivity	-10.8848
he	-10.8865
▁cloud	-10.8878
▁sneak	-10.8878
▁unlimited	-10.8878
▁pacing	-10.8878
▁burst	-10.8881
▁angle	-10.889
▁bow	-10.8891
▁nah	-10.8899
▁advertise	-10.8903
▁pan	-10.8917
▁sc	-10.8922
▁roller	-10.8926
▁boom	-10.894
▁ear	-10.8941
evolution	-10.8949
▁description	-10.895
▁expert	-10.895
▁alter	-10.8975
va	-10.8989
ory	-10.8996
▁forth	-10.9014
▁century	-10.9022
▁girlfriend	-10.9022
up	-10.9022
▁quiet	-10.9023
▁promote	-10.9023
▁shout	-10.9024
▁suggestion	-10.9039
▁mesh	-10.9045
og	-10.9049
▁crate	-10.9057
ad	-10.9062
▁permanent	-10.9068
▁chunk	-10.9095
▁disrupt	-10.9095
▁himself	-10.9095
▁revert	-10.9095
▁breed	-10.9095
▁diplomatic	-10.9096
sque	-10.9105
▁mo	-10.9128
▁explode	-10.9169
▁outcome	-10.9169
▁removal	-10.9169
▁unfold	-10.9169
▁crossplay	-10.917
▁song	-10.9172
▁precise	-10.9184
▁mp	-10.9185
▁valu	-10.9221
▁sa	-10.924
▁bloodborne	-10.9243
▁xiv	-10.9243
▁boi	-10.9246
▁punishment	-10.9247
▁missile	-10.9247
ative	-10.925
▁creepy	-10.9252
ise	-10.9261
board	-10.9276
▁medic	-10.9283
▁pin	-10.9293
tive	-10.9296
▁loser	-10.9314
▁detect	-10.9314
▁adorable	-10.9317
▁infuriate	-10.9317
▁worthwhile	-10.9317
▁flame	-10.9317
▁proud	-10.9318
▁continual	-10.9322
▁native	-10.9322
▁sail	-10.9323
▁massively	-10.9325
▁primary	-10.9326
▁sony	-10.9366
▁ju	-10.9371
▁excited	-10.9373
▁ple	-10.9373
ill	-10.9391
pt	-10.9392
▁accuracy	-10.9392
▁component	-10.9392
▁crawl	-10.9392
▁prompt	-10.9392
▁relevant	-10.9392
▁substantial	-10.9392
▁stake	-10.9393
▁planning	-10.9394
▁awe	-10.9395
▁growth	-10.9397
▁gay	-10.9404
vi	-10.9409
▁beg	-10.9418
▁lesson	-10.9421
▁moral	-10.9423
▁increas	-10.944
▁battleeye	-10.9468
▁exceed	-10.9468
▁simulate	-10.9468
▁wolf	-10.9468
▁determine	-10.9468
▁guild	-10.9468
tumble	-10.9469
▁society	-10.947
▁pur	-10.9472
▁operate	-10.9474
▁arma	-10.948
▁unbelievable	-10.9482
▁sometime	-10.9488
ried	-10.949
hold	-10.9507
▁spic	-10.9522
▁jo	-10.9531
▁sum	-10.9542
▁alternate	-10.9545
▁dopamine	-10.9545
▁japanese	-10.9545
▁basketball	-10.9545
▁humor	-10.9545
▁aircraft	-10.9545
▁yall	-10.9547
▁tax	-10.9549
▁safely	-10.9552
▁starve	-10.9561
▁participat	-10.9574
▁outright	-10.9576
stamen	-10.9576
▁mi	-10.958
ard	-10.9596
▁ideal	-10.9598
▁wizard	-10.9605
▁height	-10.9621
▁mandatory	-10.9621
▁nvidia	-10.9621
▁underwhelming	-10.9621
▁wrap	-10.9621
▁scope	-10.9621
▁shall	-10.9622
▁repeatedly	-10.9622
ak	-10.9624
▁mj	-10.9624
▁dust	-10.9629
▁sync	-10.9631
hood	-10.9636
tten	-10.9643
back	-10.9644
▁demon	-10.9648
▁amazingly	-10.9657
▁equi	-10.9697
▁await	-10.9699
▁clutter	-10.9699
▁cringe	-10.9699
ess	-10.97
▁dime	-10.9704
▁presentation	-10.9707
recognize	-10.9732
▁exclusive	-10.9753
▁chart	-10.9755
▁sw	-10.9768
▁incompetent	-10.9777
▁premise	-10.9777
▁responsibility	-10.9777
▁tailor	-10.9778
▁predictable	-10.9778
▁lean	-10.9783
ange	-10.9783
ster	-10.9789
▁integrate	-10.979
▁friends	-10.9807
▁unlocked	-10.9808
▁format	-10.9815
▁delivers	-10.9824
▁simpl	-10.985
▁goat	-10.9852
sequence	-10.9854
▁extent	-10.9856
▁fanbase	-10.9856
▁ryzen	-10.9856
▁uninspir	-10.9856
▁invasion	-10.9857
▁shaders	-10.9866
▁mastery	-10.9896
▁dc	-10.9905
▁seed	-10.9911
▁pros	-10.9912
j	-10.992
thor	-10.9923
▁utilize	-10.9926
▁captivating	-10.9935
▁naraka	-10.9935
▁sacrifice	-10.9935
▁albe	-10.9935
▁halo	-10.9937
▁del	-10.994
▁manner	-10.9941
▁junk	-10.9944
▁gradual	-10.9946
▁coast	-10.9962
wich	-10.9993
▁sex	-11.0005
▁brief	-11.0015
▁colour	-11.0015
▁heirloom	-11.0015
▁transition	-11.0015
▁diablo	-11.0015
▁triumph	-11.0015
▁surpass	-11.0015
▁optimisation	-11.0015
▁protagonist	-11.0015
▁tea	-11.0016
▁eeri	-11.0017
▁dual	-11.0018
▁comeback	-11.0028
▁rl	-11.004
▁motivat	-11.0052
▁manual	-11.0069
▁aid	-11.0072
▁ab	-11.0086
▁ga	-11.0086
q	-11.0086
artial	-11.0095
▁manipulat	-11.0096
▁mouth	-11.0096
▁reveal	-11.0096
valent	-11.0096
▁science	-11.0096
▁south	-11.0097
▁esp	-11.0097
▁jet	-11.0097
▁wholesome	-11.0098
▁adjustment	-11.0099
▁editor	-11.0107
friend	-11.0109
active	-11.0132
field	-11.0133
▁asian	-11.0163
▁sn	-11.0167
ern	-11.0172
▁redemption	-11.0177
▁bond	-11.0177
▁goalkeep	-11.0178
▁minus	-11.0181
▁fog	-11.0181
▁warner	-11.0212
ru	-11.0216
eath	-11.0219
position	-11.0221
▁grace	-11.0235
▁thirst	-11.0248
▁delivery	-11.0251
icular	-11.0252
▁slide	-11.0255
▁restrict	-11.0256
▁awkward	-11.0259
▁heavensward	-11.0259
▁reconnect	-11.0259
▁roof	-11.0259
▁revisit	-11.0259
▁parkour	-11.026
▁winter	-11.0274
▁national	-11.0285
▁arch	-11.0325
▁defensive	-11.0342
▁ngl	-11.0342
▁mobility	-11.0342
▁headache	-11.0343
▁unbearable	-11.0344
▁spear	-11.0345
▁ol	-11.0372
▁leveling	-11.0374
▁mom	-11.0387
▁elo	-11.0387
▁seamlessly	-11.0391
▁origin	-11.042
▁competitor	-11.0425
▁embrace	-11.0425
▁sharp	-11.0425
▁bleed	-11.0425
▁leaderboard	-11.0426
▁hostage	-11.0428
▁ba	-11.0434
▁fleet	-11.0436
▁mich	-11.0443
od	-11.0444
▁complicated	-11.046
▁perma	-11.046
▁continuous	-11.0483
▁ja	-11.0487
▁pa	-11.049
▁america	-11.0505
▁chain	-11.0509
▁morning	-11.0509
▁silence	-11.0509
▁nerd	-11.0509
▁torsion	-11.0509
▁slop	-11.0509
▁backwards	-11.0517
ral	-11.0523
par	-11.0526
ine	-11.0535
▁gr	-11.0543
▁personalize	-11.0547
▁monthly	-11.0558
▁hooked	-11.0564
▁ran	-11.0565
▁worker	-11.0584
▁arsenal	-11.0594
▁monetize	-11.0594
▁mwii	-11.0594
▁relentless	-11.0594
▁accessibility	-11.0594
▁clown	-11.0594
▁laser	-11.0594
▁curious	-11.0594
▁romance	-11.0594
▁dick	-11.0594
▁novel	-11.0594
▁clothes	-11.0595
▁simultaneously	-11.0596
▁impactful	-11.0596
clear	-11.0646
▁reven	-11.0667
▁tom	-11.0668
tch	-11.0675
▁budget	-11.0679
▁declare	-11.0679
▁wealth	-11.0679
▁snow	-11.0679
▁represent	-11.068
▁latency	-11.068
▁dash	-11.068
▁redeem	-11.0682
si	-11.0683
▁running	-11.0693
▁ray	-11.0694
▁bound	-11.0702
▁intro	-11.0706
▁infinitely	-11.0707
▁chop	-11.0714
ton	-11.0735
▁ye	-11.0751
▁va	-11.0754
▁loadout	-11.0754
son	-11.0754
▁japan	-11.0766
▁college	-11.0766
▁exhaust	-11.0766
▁soldier	-11.0766
▁somebody	-11.0766
▁humble	-11.0766
▁boundary	-11.0766
▁comedy	-11.0766
▁stellar	-11.077
▁relic	-11.077
nner	-11.0771
▁configur	-11.0781
da	-11.079
▁nasa	-11.0811
▁younger	-11.0825
▁bs	-11.0833
▁opening	-11.0843
▁swinging	-11.0846
▁cartoon	-11.0852
▁assault	-11.0852
▁africa	-11.0853
▁property	-11.0854
▁delightful	-11.0854
▁retain	-11.0856
▁broom	-11.0856
▁reading	-11.0861
▁shake	-11.087
▁officially	-11.0876
▁rn	-11.0876
▁prob	-11.088
act	-11.0918
▁desync	-11.092
▁strip	-11.0926
▁necessar	-11.0929
▁accident	-11.094
▁titan	-11.094
historic	-11.094
▁concernedape	-11.094
▁illegal	-11.094
▁revamp	-11.094
▁shelter	-11.094
▁spidey	-11.094
▁traverse	-11.094
▁hq	-11.0941
▁mentally	-11.0945
test	-11.0947
▁admins	-11.0956
▁noticeable	-11.0956
▁hunting	-11.0963
▁sling	-11.0968
▁thru	-11.1005
▁tf	-11.1006
comfortable	-11.1009
▁transport	-11.1027
▁slash	-11.1029
▁brick	-11.1029
▁decrease	-11.1029
▁scroll	-11.1029
▁clock	-11.103
▁functionality	-11.1031
▁orient	-11.1042
▁faceit	-11.1043
▁statement	-11.1047
lush	-11.1055
▁sims	-11.1058
▁ra	-11.1063
▁tired	-11.1064
iest	-11.1072
▁rec	-11.1082
▁smurf	-11.1082
ep	-11.1086
arch	-11.109
ade	-11.1092
▁maximum	-11.1118
▁monkey	-11.1118
▁recipe	-11.1118
▁terraria	-11.1118
▁cell	-11.1118
▁costume	-11.1119
▁protection	-11.1124
▁hint	-11.1126
work	-11.1142
▁limitless	-11.1152
▁hall	-11.1162
▁healthy	-11.117
▁doom	-11.1179
▁apparent	-11.1181
ah	-11.1199
▁heat	-11.1204
head	-11.1206
▁merchan	-11.1208
▁bait	-11.1209
▁checkpoint	-11.121
▁crowd	-11.121
▁stance	-11.1211
▁downhill	-11.1211
▁gas	-11.1221
▁limitation	-11.1221
▁jack	-11.1221
cu	-11.1227
dium	-11.1229
▁lil	-11.1242
▁ish	-11.1244
sp	-11.1255
▁wirebug	-11.1279
▁creep	-11.1288
▁volume	-11.1299
▁amazon	-11.1299
▁mechanism	-11.1299
▁dense	-11.1299
▁forgive	-11.1299
▁monotonous	-11.1299
▁arrive	-11.13
▁depression	-11.1302
▁paid	-11.1302
▁entirety	-11.1306
▁capital	-11.1322
▁exclusively	-11.1331
▁stri	-11.1338
box	-11.1345
ward	-11.1367
▁recover	-11.138
aint	-11.1386
▁distract	-11.1387
▁sooner	-11.1388
▁pub	-11.1389
▁arguabl	-11.1391
▁meanwhile	-11.1391
▁revive	-11.1391
▁slightest	-11.1393
tribute	-11.1403
▁lea	-11.1407
▁factory	-11.1427
▁goated	-11.1435
shot	-11.1441
▁carefully	-11.1447
so	-11.1455
▁modes	-11.1469
▁needless	-11.1477
▁talent	-11.1477
▁injury	-11.1483
▁neutral	-11.1483
▁subtle	-11.1484
▁revolve	-11.1484
▁knight	-11.1484
▁rail	-11.1484
▁passive	-11.1492
▁boil	-11.1494
▁nicely	-11.15
▁youth	-11.1501
▁forbid	-11.1507
▁butter	-11.1507
▁striker	-11.1518
▁immensely	-11.152
▁coordinat	-11.1546
atic	-11.1553
▁refreshing	-11.1558
▁primar	-11.1566
etch	-11.1571
▁subject	-11.1576
tacle	-11.1576
▁sprawl	-11.1577
▁straightforward	-11.1577
▁ddos	-11.1577
▁entity	-11.1577
▁raw	-11.1579
▁successor	-11.158
▁civil	-11.1581
▁moderate	-11.1582
▁desperately	-11.1598
▁industrial	-11.1642
sa	-11.1645
▁bounce	-11.1657
▁artist	-11.1661
▁insta	-11.167
▁famous	-11.1671
▁malicious	-11.1671
▁simplicity	-11.1671
▁intensity	-11.1671
and	-11.1672
▁restore	-11.1672
▁leak	-11.1673
▁eh	-11.168
▁cloth	-11.1681
▁spy	-11.1688
▁bur	-11.1721
▁cart	-11.1726
point	-11.1731
ss	-11.1737
▁ice	-11.174
▁spit	-11.175
▁slug	-11.1759
▁decorat	-11.1762
▁consist	-11.1762
▁channel	-11.1766
▁pinnacle	-11.1766
▁sphere	-11.1766
▁flight	-11.1768
▁cough	-11.1769
▁shortcoming	-11.177
▁tall	-11.1772
mz	-11.1779
▁loadouts	-11.1789
▁director	-11.1819
warm	-11.1822
▁timer	-11.184
▁oc	-11.1845
▁nm	-11.1851
▁dread	-11.1857
▁construct	-11.1858
▁elaborat	-11.1863
▁guidance	-11.1863
▁strict	-11.1863
▁gang	-11.1863
▁dip	-11.1864
▁browser	-11.1865
▁maneuver	-11.1869
▁fla	-11.1872
▁acceptable	-11.1872
▁humanity	-11.1873
▁faithful	-11.1875
▁intentionally	-11.1876
sent	-11.1896
▁idle	-11.1897
▁arr	-11.1899
ring	-11.1936
▁grief	-11.1943
▁rag	-11.1945
▁shoulder	-11.1955
ael	-11.1959
▁recruit	-11.196
▁christmas	-11.196
▁enchant	-11.196
▁embar	-11.196
▁swim	-11.196
▁desert	-11.196
rry	-11.1961
▁marry	-11.1962
▁barrier	-11.1962
▁flawless	-11.1962
▁weakness	-11.1964
▁designer	-11.1971
▁embarrass	-11.1981
▁bump	-11.1989
power	-11.2
▁pad	-11.2003
like	-11.2021
▁cla	-11.2022
▁yours	-11.2025
yre	-11.2045
▁dribble	-11.2049
▁innocent	-11.2058
▁intriguing	-11.2058
▁invisible	-11.2058
▁scatter	-11.2058
▁stretch	-11.2058
▁turret	-11.2058
▁reskin	-11.2058
▁goodbye	-11.2058
▁integration	-11.2058
▁favour	-11.2058
▁sprint	-11.206
▁vc	-11.2079
▁hesita	-11.2094
▁scan	-11.2096
▁pant	-11.2101
rs	-11.2114
claim	-11.2116
ky	-11.2128
▁obs	-11.2156
▁religio	-11.2156
▁nick	-11.2157
▁silent	-11.2157
▁omg	-11.2157
▁glass	-11.2157
▁smile	-11.2157
▁cake	-11.2157
▁snap	-11.2157
ten	-11.2157
▁korean	-11.2158
▁import	-11.2158
▁forsake	-11.2164
▁agent	-11.2168
▁yo	-11.2172
▁lifetime	-11.2173
▁stat	-11.2176
▁presen	-11.2185
▁coordinate	-11.2189
▁mechanical	-11.2192
iness	-11.2196
▁toward	-11.2205
▁forge	-11.221
▁fs	-11.223
▁ut	-11.2238
▁comic	-11.2244
trado	-11.2257
▁footstep	-11.2257
▁happily	-11.2257
▁niche	-11.2257
▁skyrim	-11.2257
▁whale	-11.2257
▁attitude	-11.2257
▁persistent	-11.2258
▁abusi	-11.2259
▁male	-11.226
▁evident	-11.226
▁drift	-11.2264
▁opt	-11.2264
ley	-11.2273
▁cra	-11.2282
▁ofc	-11.2295
▁focused	-11.2297
▁barrel	-11.2312
▁bp	-11.2348
▁blade	-11.2358
▁cruise	-11.2358
▁obnoxious	-11.2358
▁playground	-11.2358
▁unoptimized	-11.2358
▁yesterday	-11.2358
▁chair	-11.2358
▁kiss	-11.2358
▁streamline	-11.2359
las	-11.2363
▁bla	-11.2367
▁lane	-11.2373
▁rpgs	-11.2384
▁ke	-11.2416
▁delight	-11.2458
▁dawntrail	-11.246
▁recreate	-11.246
▁unresponsive	-11.246
▁seren	-11.246
▁flashlight	-11.246
▁trend	-11.246
▁spoon	-11.246
▁brim	-11.2461
▁central	-11.2462
ible	-11.2463
▁judge	-11.2465
▁villager	-11.2473
▁afterwards	-11.2474
▁mag	-11.2475
▁modification	-11.2477
▁inclusion	-11.2478
▁bless	-11.2488
▁hyper	-11.249
▁har	-11.2527
sk	-11.2532
▁com	-11.2534
▁ah	-11.2536
lam	-11.254
rack	-11.254
▁gra	-11.2552
▁masterful	-11.2554
ria	-11.2555
▁am	-11.2557
▁anxiety	-11.2563
▁conversation	-11.2563
▁happiness	-11.2563
▁quarter	-11.2563
▁tarnish	-11.2563
▁nerve	-11.2563
▁haul	-11.2564
▁git	-11.257
▁youtubers	-11.2572
▁foe	-11.258
▁wire	-11.2582
▁bob	-11.2608
▁mon	-11.2612
▁surprised	-11.2617
▁usa	-11.2619
▁fate	-11.2621
▁selling	-11.2662
▁belong	-11.2665
▁horrific	-11.2667
▁jesus	-11.2667
▁outrageous	-11.2667
▁sigma	-11.2667
▁uninteresting	-11.2667
▁cultural	-11.2667
▁venture	-11.2667
▁cheer	-11.2667
▁tark	-11.2667
▁justice	-11.2672
▁shoe	-11.2674
▁infected	-11.2679
▁yt	-11.2679
▁upload	-11.2685
▁darkness	-11.2686
▁letter	-11.2692
▁tile	-11.2697
una	-11.2698
▁understandable	-11.2737
tric	-11.2739
▁haunt	-11.2745
live	-11.2745
▁surprising	-11.2745
▁spamm	-11.2764
▁bake	-11.2764
▁differently	-11.2769
ium	-11.2771
▁anticipate	-11.2772
▁longevity	-11.2772
▁spray	-11.2772
▁coach	-11.2772
▁porn	-11.2772
▁definetly	-11.2772
▁raven	-11.2772
▁fend	-11.2773
▁freighter	-11.2773
▁imbalance	-11.2775
▁popularity	-11.2778
▁compatible	-11.2781
▁freely	-11.2783
▁overpriced	-11.2788
▁griefing	-11.2789
by	-11.279
▁truth	-11.2845
▁bi	-11.2846
▁cam	-11.2867
doub	-11.2875
▁branch	-11.2879
▁crusade	-11.2879
▁heaven	-11.2879
▁identity	-11.2879
▁monetisation	-11.2879
▁psyonix	-11.2879
▁tenno	-11.2879
▁cliff	-11.2879
▁slay	-11.2879
▁toilet	-11.2879
▁panic	-11.2881
▁bunker	-11.2881
▁threaten	-11.2881
▁trans	-11.2882
▁laughter	-11.2883
▁steady	-11.2883
▁detection	-11.2884
▁reverse	-11.2884
▁highway	-11.2895
▁cre	-11.2898
▁goof	-11.2916
▁attract	-11.2941
regard	-11.2946
▁publish	-11.2976
ache	-11.2977
non	-11.2982
▁terror	-11.2986
▁bankrupt	-11.2986
▁disadvantage	-11.2986
▁film	-11.2986
▁john	-11.2986
▁santos	-11.2986
▁jerk	-11.2986
▁twitch	-11.2986
▁clever	-11.2986
▁shutdown	-11.2987
▁honor	-11.2987
▁luis	-11.2987
▁warcraft	-11.2989
ay	-11.2991
▁meaningless	-11.2995
▁lo	-11.3003
▁absen	-11.3013
ver	-11.3014
▁filler	-11.3024
▁rap	-11.305
water	-11.3054
▁charming	-11.3059
ore	-11.3074
▁bustl	-11.3083
▁relation	-11.3095
▁golf	-11.3095
▁dramatic	-11.3096
▁possess	-11.3097
▁enhancement	-11.3102
▁badass	-11.3103
▁mild	-11.3103
▁hammer	-11.3108
▁impressed	-11.3111
▁lonely	-11.3114
▁north	-11.3125
▁ost	-11.3136
▁haven	-11.3137
▁nerfing	-11.3148
▁sid	-11.3158
lief	-11.3178
▁frustrated	-11.3181
▁admin	-11.3185
▁stuttering	-11.3185
▁uncle	-11.3196
▁east	-11.3199
▁pen	-11.32
▁casino	-11.3205
▁dishearten	-11.3205
▁endwalker	-11.3205
▁prestige	-11.3205
▁prism	-11.3205
▁teeth	-11.3205
▁automatic	-11.3205
oc	-11.3206
lar	-11.3207
▁artwork	-11.3207
▁explosive	-11.3207
▁generous	-11.3208
▁usd	-11.3209
▁realistically	-11.3214
▁lift	-11.3218
▁reply	-11.3221
▁bush	-11.3231
▁lit	-11.3249
▁cu	-11.3251
io	-11.3253
▁playability	-11.328
night	-11.3284
▁hoi	-11.3294
▁precis	-11.3294
▁following	-11.3298
ug	-11.3301
▁dimension	-11.3311
▁baffle	-11.3316
▁troubleshoot	-11.3316
▁ect	-11.3316
▁capacity	-11.3316
▁quote	-11.3316
▁braindead	-11.3316
▁gunfire	-11.3317
▁queen	-11.3318
▁void	-11.3318
▁cooldown	-11.3321
▁activate	-11.333
▁mw	-11.3334
▁stab	-11.3335
▁wirebugs	-11.334
down	-11.3341
▁mil	-11.3341
▁bite	-11.3349
ool	-11.3351
▁mechanically	-11.3379
some	-11.3385
▁financial	-11.3401
▁efficient	-11.341
▁salt	-11.3417
▁occasion	-11.3423
▁inevitab	-11.3427
▁eliminat	-11.3428
▁goddamn	-11.3428
▁optimal	-11.3428
▁precious	-11.3428
▁routine	-11.3428
▁emote	-11.3428
▁moron	-11.3428
▁ceo	-11.3428
▁nuance	-11.343
▁crave	-11.343
▁san	-11.3433
▁gatekeeping	-11.3436
▁reuse	-11.3452
▁marketing	-11.3462
▁objectively	-11.347
gen	-11.348
▁emerge	-11.3482
▁depress	-11.3485
▁wor	-11.3541
▁lurk	-11.3542
▁territory	-11.3542
▁vague	-11.3542
▁vertical	-11.3542
▁registr	-11.3542
▁wallhack	-11.3542
▁pricing	-11.3542
▁intel	-11.3543
▁instruction	-11.3543
▁weave	-11.3545
▁mature	-11.3554
▁progressive	-11.3558
sheet	-11.3569
▁physically	-11.3571
▁char	-11.3573
▁mat	-11.3577
▁uk	-11.3602
shadow	-11.3617
▁windows	-11.3622
▁scum	-11.3624
▁fu	-11.3625
▁showcase	-11.3641
▁legal	-11.3644
▁drama	-11.3656
▁episode	-11.3657
▁rubbish	-11.3657
▁basis	-11.3657
▁winner	-11.3657
▁seven	-11.3657
entical	-11.3657
▁kitty	-11.3658
▁jam	-11.3659
▁scammed	-11.3659
▁betrayal	-11.3661
▁competent	-11.3661
▁plug	-11.3662
▁hud	-11.3663
▁birth	-11.3666
▁asap	-11.3676
▁updates	-11.3677
▁parker	-11.3683
▁casuals	-11.3688
▁bill	-11.3693
dic	-11.3695
ass	-11.3705
ture	-11.3711
▁supposed	-11.3723
craft	-11.3728
▁secur	-11.3733
▁unpredictab	-11.3772
▁stare	-11.3772
▁assassin	-11.3773
▁deaf	-11.3773
▁denuvo	-11.3773
▁induce	-11.3773
▁ladder	-11.3773
▁negligence	-11.3773
▁reboot	-11.3773
▁awsome	-11.3773
▁terrorist	-11.3774
▁dress	-11.3774
▁bottle	-11.3777
▁restriction	-11.3778
▁duel	-11.3782
▁rin	-11.3782
load	-11.3803
▁news	-11.3804
▁weaker	-11.3818
▁fund	-11.3818
▁topic	-11.3818
▁paywalls	-11.3829
ery	-11.3858
top	-11.3862
▁shi	-11.3865
▁unbelievabl	-11.3869
▁jas	-11.3883
▁firefight	-11.3891
▁genius	-11.3891
▁hassle	-11.3891
▁inferior	-11.3891
▁microsoft	-11.3891
▁schedule	-11.3891
▁gundam	-11.3891
▁ashamed	-11.3891
▁garage	-11.3891
▁woke	-11.3892
▁bus	-11.3894
▁wreck	-11.3896
▁ubi	-11.3903
▁gore	-11.3903
▁found	-11.391
▁fck	-11.3916
name	-11.3916
▁upgraded	-11.3921
warming	-11.3938
▁os	-11.3957
▁trucker	-11.3961
build	-11.397
rage	-11.3977
▁bum	-11.3999
▁intention	-11.4007
▁circumstance	-11.401
▁incompetence	-11.401
▁soulsborne	-11.401
▁cooperation	-11.401
▁income	-11.401
▁astound	-11.401
▁decay	-11.401
▁insomniac	-11.401
▁racial	-11.401
▁sincerely	-11.401
▁mash	-11.4011
wards	-11.4012
▁expression	-11.4017
aw	-11.4019
▁funniest	-11.402
▁smurfing	-11.4031
▁hone	-11.4031
ith	-11.4034
mplement	-11.4043
▁automate	-11.4049
▁desperate	-11.4108
▁engineer	-11.4117
▁fulfil	-11.4128
▁facepunch	-11.413
▁jungle	-11.413
▁relaunch	-11.413
▁strand	-11.413
▁intensive	-11.413
▁slim	-11.413
▁vicky	-11.4131
▁contra	-11.4131
▁physical	-11.4137
▁virus	-11.4139
▁movesets	-11.4143
▁poop	-11.4145
▁noobs	-11.4167
▁hitbox	-11.4167
▁exhilarating	-11.4168
vice	-11.4189
▁fe	-11.4191
▁odds	-11.4197
view	-11.4204
▁gre	-11.4205
ized	-11.4225
▁acc	-11.4227
▁unite	-11.4242
▁calamity	-11.4252
▁dunno	-11.4252
▁dystopia	-11.4252
▁egregious	-11.4252
▁electric	-11.4252
▁nevertheless	-11.4252
▁stormblood	-11.4252
▁photo	-11.4252
▁gender	-11.4252
▁facility	-11.4255
▁distan	-11.4256
hard	-11.4257
▁decoration	-11.4257
ggle	-11.4258
▁wash	-11.4263
▁lost	-11.4266
▁laughable	-11.4275
▁tv	-11.4279
▁portal	-11.4282
▁cur	-11.4292
▁cher	-11.4299
▁employ	-11.4314
▁dam	-11.4318
▁coolest	-11.4319
join	-11.4337
▁chees	-11.4354
▁pred	-11.4355
▁videogame	-11.4357
▁avid	-11.436
pse	-11.4365
▁happens	-11.4366
▁mage	-11.4367
▁oil	-11.4372
▁clutch	-11.4376
▁enormous	-11.4376
▁glorious	-11.4376
▁horrid	-11.4376
▁maintenance	-11.4376
▁shenanigan	-11.4376
▁trace	-11.4377
▁shovel	-11.4379
▁father	-11.439
ose	-11.4401
▁consideration	-11.4409
▁bo	-11.4419
▁ego	-11.4425
▁someday	-11.4434
▁lucki	-11.4435
nic	-11.4447
rank	-11.4463
▁developed	-11.4469
▁ratio	-11.4472
hu	-11.4473
▁absolut	-11.4479
▁temp	-11.4479
▁predator	-11.449
vid	-11.4497
▁dialog	-11.45
▁backpack	-11.4501
▁disagree	-11.4501
▁rubicon	-11.4501
▁obscur	-11.4501
▁drip	-11.4501
▁smell	-11.4501
▁dinner	-11.4501
▁chess	-11.4501
▁pride	-11.4501
▁june	-11.4502
imize	-11.4503
sert	-11.4504
▁occupy	-11.4504
▁maker	-11.4507
▁experimentation	-11.4507
▁sickness	-11.4507
▁hasn	-11.4514
rrow	-11.4519
rate	-11.4535
▁comical	-11.454
▁cinematics	-11.4548
▁sl	-11.4585
intuitive	-11.4587
▁gig	-11.4601
▁reg	-11.4616
▁skull	-11.4627
▁transcend	-11.4627
▁steel	-11.4627
▁waay	-11.4627
▁landmark	-11.4628
▁nearby	-11.4629
▁colorful	-11.463
▁deter	-11.4633
▁cock	-11.4636
▁heap	-11.4638
▁dp	-11.4647
▁italy	-11.4648
▁van	-11.4654
▁intimidate	-11.4676
▁buffer	-11.4676
▁fuckin	-11.4679
microtransaction	-11.4684
▁ambien	-11.4685
tp	-11.4686
ference	-11.4694
▁bye	-11.4706
▁gu	-11.471
weigh	-11.471
face	-11.4715
men	-11.4723
▁quicker	-11.4741
▁tre	-11.475
▁valid	-11.4755
▁horizon	-11.4755
▁crippl	-11.4755
▁persever	-11.4755
▁resort	-11.4755
▁deliberate	-11.4756
▁magnificent	-11.4756
▁masterclass	-11.4756
▁department	-11.4756
▁destruction	-11.4756
▁definitive	-11.4757
▁assure	-11.4758
▁rent	-11.4759
iv	-11.4768
▁fea	-11.4771
arm	-11.4786
cise	-11.4788
▁analy	-11.4797
▁working	-11.4805
raction	-11.4835
▁simplif	-11.4845
▁aud	-11.4849
pp	-11.4864
▁futur	-11.4865
▁arrow	-11.487
▁betray	-11.4881
▁refer	-11.4885
▁cheek	-11.4885
▁pistol	-11.4885
▁recolor	-11.4885
▁tmodloader	-11.4885
▁tremendous	-11.4885
▁visible	-11.4885
▁spyware	-11.4885
▁drastically	-11.4885
▁pallet	-11.4886
▁blank	-11.4886
▁draft	-11.4886
▁french	-11.4886
▁drill	-11.4886
▁hacking	-11.4892
tude	-11.4894
▁gro	-11.4911
▁tricky	-11.4915
string	-11.492
let	-11.4935
▁reminder	-11.4937
▁q	-11.4943
fully	-11.4957
▁iq	-11.4959
team	-11.4977
▁exotic	-11.4997
ha	-11.4997
▁soulless	-11.5006
▁breaking	-11.5009
▁bhvr	-11.5017
▁convenient	-11.5017
▁hazard	-11.5017
▁incomplete	-11.5017
▁insanity	-11.5017
▁wield	-11.5017
▁internal	-11.5017
▁loving	-11.5017
▁shady	-11.5017
▁forgettable	-11.5017
▁january	-11.5017
▁hollow	-11.5017
▁grateful	-11.5017
▁asshole	-11.5017
▁debat	-11.5017
▁acclaim	-11.5018
▁overlook	-11.5019
▁subscribe	-11.5019
▁contrast	-11.5022
▁admire	-11.5036
▁fatal	-11.5044
▁whit	-11.5047
try	-11.5056
oid	-11.5064
▁camper	-11.5074
▁payment	-11.5083
▁videos	-11.5093
▁du	-11.5094
▁ambi	-11.5094
fall	-11.5102
coast	-11.5114
list	-11.5115
▁fl	-11.514
▁convolute	-11.5142
▁eviden	-11.5146
▁tames	-11.5147
▁masochist	-11.5149
▁incorporate	-11.515
▁reflex	-11.515
▁segment	-11.515
▁shaggy	-11.515
▁speech	-11.515
▁sustain	-11.515
▁underrated	-11.515
▁unleash	-11.515
▁wholeheartedly	-11.515
▁populate	-11.515
▁foreign	-11.515
▁glow	-11.515
▁habit	-11.5151
▁stellaris	-11.5151
▁oblivion	-11.5151
▁fade	-11.5154
pew	-11.516
nky	-11.516
▁differ	-11.5166
gy	-11.5169
▁refined	-11.5171
▁mf	-11.5183
dler	-11.519
▁spite	-11.5195
▁manageable	-11.5212
▁rex	-11.5221
▁basement	-11.5233
▁asf	-11.5259
dle	-11.5262
▁token	-11.5265
▁completionist	-11.5266
▁goty	-11.5269
▁pun	-11.5277
▁pig	-11.5285
▁retro	-11.5285
▁husband	-11.5285
▁artifact	-11.5285
▁diminish	-11.5285
▁inspiration	-11.5285
▁latter	-11.5285
▁scorch	-11.5285
▁debt	-11.5285
▁pdx	-11.5285
▁tolerate	-11.5285
▁melt	-11.5286
▁label	-11.5286
▁griefers	-11.5286
▁collaboration	-11.5288
▁brit	-11.5289
▁mow	-11.5292
▁theory	-11.5293
▁ech	-11.5294
▁sexy	-11.5304
▁garrys	-11.5326
▁resist	-11.5332
sis	-11.5344
▁dec	-11.5359
▁dang	-11.5362
trio	-11.5375
screen	-11.5382
▁eager	-11.5398
▁disgrace	-11.5416
ature	-11.5416
▁holi	-11.5418
▁associate	-11.5422
▁compromise	-11.5422
▁confidence	-11.5422
▁domination	-11.5422
▁infuriating	-11.5422
▁raptor	-11.5422
▁skibidi	-11.5422
▁versatile	-11.5422
▁unranked	-11.5422
▁teamates	-11.5422
▁resc	-11.5424
mill	-11.5424
▁dope	-11.5424
aughter	-11.5426
▁freinds	-11.5426
▁unreasonable	-11.5427
▁robbery	-11.5428
sq	-11.5429
viet	-11.544
▁retarded	-11.544
▁strategiz	-11.5443
▁magn	-11.5457
▁summons	-11.5461
ming	-11.5467
▁arbitrar	-11.5482
▁joker	-11.5484
▁ward	-11.5485
ger	-11.5492
▁pete	-11.5496
▁disgusting	-11.5496
astic	-11.5498
han	-11.5518
tle	-11.5521
house	-11.5522
▁crouch	-11.5561
▁retire	-11.5561
▁sebastian	-11.5561
▁substance	-11.5561
▁surroundings	-11.5561
▁fiction	-11.5562
▁responsible	-11.5563
▁unwind	-11.5565
▁donate	-11.5567
▁treatment	-11.5567
▁frankl	-11.5569
▁neck	-11.5576
▁thin	-11.559
▁sour	-11.5603
tage	-11.5606
▁ele	-11.5609
▁sm	-11.561
aunt	-11.5619
▁unlockable	-11.5629
ney	-11.5647
▁brings	-11.5648
attend	-11.5664
ound	-11.5672
▁artificial	-11.5675
▁expos	-11.5678
player	-11.568
iff	-11.5701
▁influ	-11.5702
▁bizarre	-11.5702
▁colony	-11.5702
▁kudos	-11.5702
▁miyazaki	-11.5702
▁paradise	-11.5702
▁sentinel	-11.5702
▁suicide	-11.5702
▁unpolished	-11.5702
▁divide	-11.5702
▁streak	-11.5702
▁bladepoint	-11.5702
▁skeptic	-11.5702
▁eight	-11.5703
▁furry	-11.5703
▁val	-11.5709
▁assign	-11.572
▁relaxation	-11.5728
ken	-11.5736
bble	-11.5737
ential	-11.5742
map	-11.5774
▁recogni	-11.5779
▁vo	-11.5783
udge	-11.5789
mark	-11.5804
light	-11.5807
▁unbalance	-11.5837
▁bronze	-11.5845
▁conscience	-11.5845
▁exchange	-11.5845
▁fidelity	-11.5845
▁overkill	-11.5845
▁seperate	-11.5845
▁shatter	-11.5845
▁wifi	-11.5845
▁worldwide	-11.5845
▁autistic	-11.5845
▁utility	-11.5845
▁bash	-11.5846
▁grade	-11.5847
▁inevitable	-11.5847
▁lightfall	-11.5847
▁spooky	-11.5848
▁wacky	-11.5849
▁slave	-11.585
▁downfall	-11.5852
▁tempt	-11.5872
▁criti	-11.5879
▁bitter	-11.5887
▁eac	-11.5901
ped	-11.5905
▁fry	-11.5916
▁motivate	-11.5923
ugh	-11.5935
ception	-11.5943
▁dar	-11.5957
sembl	-11.5968
jo	-11.597
▁catalog	-11.5981
▁office	-11.5986
▁customise	-11.5987
rlin	-11.5989
▁blizzard	-11.599
▁brave	-11.599
▁convoy	-11.599
▁foremost	-11.599
▁international	-11.599
▁spark	-11.599
▁submit	-11.599
▁technique	-11.599
▁twitter	-11.599
▁yourselves	-11.599
▁penalize	-11.599
▁criticize	-11.599
▁hoard	-11.599
▁navigation	-11.5991
▁profound	-11.5991
▁zip	-11.5991
▁banana	-11.5991
▁gp	-11.5994
▁replicate	-11.5994
▁frontline	-11.5995
▁respective	-11.5997
▁countryside	-11.5997
▁fallout	-11.5998
voke	-11.6
▁dirty	-11.6
vas	-11.6013
▁startup	-11.6014
▁concerned	-11.6023
▁peer	-11.6023
▁irritate	-11.603
▁forgot	-11.604
▁invent	-11.6049
edly	-11.605
pose	-11.6052
▁astonish	-11.6053
▁platformer	-11.6066
▁mr	-11.6068
▁negatively	-11.6072
▁cooler	-11.6076
gnant	-11.6085
▁wa	-11.6088
▁hu	-11.6095
phone	-11.6096
company	-11.6097
▁logical	-11.61
▁axe	-11.6103
ified	-11.611
room	-11.6117
scaling	-11.612
▁trail	-11.6128
▁randomize	-11.613
▁trivial	-11.6137
▁cousin	-11.6137
▁curiosity	-11.6137
▁exaggerate	-11.6137
▁goblin	-11.6137
▁hiccup	-11.6137
▁iceborne	-11.6137
▁irrelevant	-11.6137
▁reminisce	-11.6137
▁shadowbringers	-11.6137
▁document	-11.6137
▁crystal	-11.6137
▁unsure	-11.6137
▁insist	-11.6138
▁ahh	-11.6139
▁crossover	-11.614
▁commentary	-11.6141
▁machinery	-11.6143
▁ape	-11.6145
▁gut	-11.6146
▁clancy	-11.6147
▁ragdolls	-11.6148
rie	-11.616
▁suitable	-11.6161
▁uh	-11.6162
▁christ	-11.6169
cha	-11.6175
▁gam	-11.6198
▁sav	-11.6208
▁mega	-11.6209
tf	-11.6217
bit	-11.6277
▁compensate	-11.6286
▁crisp	-11.6286
▁dawn	-11.6286
▁fortunate	-11.6286
▁hinder	-11.6286
▁sponge	-11.6286
▁straw	-11.6286
▁versatility	-11.6286
▁housing	-11.6286
▁diffrent	-11.6286
▁poison	-11.6286
▁gacha	-11.6286
▁abundan	-11.6286
▁moderation	-11.6286
▁rubber	-11.6286
▁drown	-11.6287
▁rts	-11.6287
▁cherish	-11.6287
▁disease	-11.6287
▁ets	-11.6287
▁extraordinary	-11.6289
itain	-11.6289
▁folder	-11.6292
▁pos	-11.6292
▁letdown	-11.6293
▁meth	-11.6299
▁cd	-11.6316
▁nms	-11.6317
▁til	-11.632
▁placement	-11.6321
munity	-11.6339
▁outta	-11.6341
nasty	-11.6347
▁explorer	-11.6351
▁thi	-11.6355
▁cr	-11.6361
▁plea	-11.6365
log	-11.6367
▁mmorpgs	-11.6376
not	-11.6392
▁playlist	-11.6393
tery	-11.6413
▁unnecessar	-11.6426
game	-11.6427
call	-11.6429
ult	-11.6431
terior	-11.6438
▁barbarian	-11.6438
▁bracken	-11.6438
▁bruce	-11.6438
▁citizen	-11.6438
▁drunk	-11.6438
▁external	-11.6438
▁fascinate	-11.6438
▁glare	-11.6438
▁groundbreaking	-11.6438
▁hogsmead	-11.6438
▁horrify	-11.6438
▁nitpick	-11.6438
▁quidditch	-11.6438
▁racism	-11.6438
▁syndrome	-11.6438
▁throat	-11.6438
▁trevor	-11.6438
▁warrant	-11.6438
▁comprehensive	-11.6438
▁december	-11.6438
▁sunset	-11.6438
▁suspense	-11.6438
▁thick	-11.6438
▁tread	-11.6438
▁translat	-11.6438
▁subjective	-11.6439
▁caution	-11.6441
friendly	-11.6449
▁teenage	-11.6451
▁rant	-11.6454
▁partial	-11.6456
verse	-11.6461
▁continu	-11.6468
▁deadly	-11.6469
▁artistic	-11.6471
▁mb	-11.6485
bar	-11.6489
▁invasi	-11.649
rape	-11.6529
▁para	-11.6531
ase	-11.6532
ham	-11.6541
pain	-11.6543
ball	-11.6546
▁bull	-11.6581
▁dirt	-11.6581
▁priva	-11.6588
▁chainsaw	-11.6592
▁inflate	-11.6592
▁sprinkle	-11.6592
▁thriving	-11.6592
▁underground	-11.6592
▁glaring	-11.6592
▁crucible	-11.6592
▁enforce	-11.6592
▁disguise	-11.6592
▁wildlife	-11.6592
▁aerial	-11.6592
▁clash	-11.6592
▁agency	-11.6593
▁cult	-11.6593
nstop	-11.6594
▁gigant	-11.6594
▁reject	-11.6595
▁screenshots	-11.6598
▁spaceship	-11.6599
▁euros	-11.6599
▁temporary	-11.66
▁sadden	-11.6601
▁logo	-11.6609
dicate	-11.6621
botters	-11.6621
▁gl	-11.663
▁greatness	-11.6637
▁yr	-11.6651
hun	-11.6655
▁booster	-11.6685
lock	-11.6688
▁poo	-11.6724
trophy	-11.6748
▁annual	-11.6748
▁boycott	-11.6748
▁malenia	-11.6748
▁sensitivity	-11.6748
▁standalone	-11.6748
▁synerg	-11.6748
▁turbo	-11.6748
▁unusual	-11.6748
▁victim	-11.6748
▁welcoming	-11.6748
▁virginia	-11.6748
▁knee	-11.6748
▁conduct	-11.6749
▁bunny	-11.6749
▁broad	-11.6753
▁homies	-11.6753
▁convoluted	-11.6758
▁doxxing	-11.6761
unge	-11.6762
▁tryhards	-11.6766
▁gar	-11.6774
dependent	-11.678
▁mis	-11.678
▁thoughtful	-11.6802
▁sucker	-11.6808
ps	-11.6809
ending	-11.6832
▁enhanced	-11.6841
▁dose	-11.6843
▁thumbs	-11.6854
▁jan	-11.6874
▁prim	-11.6881
▁emphasi	-11.6887
▁fulfill	-11.6893
gon	-11.6894
▁crit	-11.6897
▁flop	-11.6902
▁browse	-11.6902
▁altogether	-11.6906
▁bread	-11.6906
▁continent	-11.6906
▁delux	-11.6906
▁eorzea	-11.6906
▁gtx	-11.6906
▁heartbreak	-11.6906
▁lifespan	-11.6906
▁sentence	-11.6906
▁cultivat	-11.6907
▁sexual	-11.6907
▁notorious	-11.6907
▁behave	-11.6907
▁spiral	-11.6907
▁mimic	-11.6907
▁smack	-11.6907
▁torch	-11.6908
▁celebrate	-11.6908
▁mayhem	-11.6908
▁decal	-11.6912
▁hog	-11.6912
▁liking	-11.6913
▁dy	-11.6914
▁reroll	-11.6914
▁jar	-11.6917
lap	-11.6918
mode	-11.6925
▁lengthy	-11.6936
commendable	-11.6938
▁supportive	-11.6948
▁redo	-11.6949
▁flawlessly	-11.6952
▁terrifying	-11.6957
lve	-11.6964
▁shameless	-11.6964
▁lan	-11.6979
allow	-11.7002
pro	-11.701
▁gamepad	-11.7013
▁nicer	-11.7016
▁independent	-11.7017
estry	-11.7042
cub	-11.7044
▁undeniabl	-11.7046
▁shader	-11.705
▁dupe	-11.7052
▁suffering	-11.7058
▁extract	-11.706
▁flavo	-11.7064
niversa	-11.7068
▁petition	-11.7068
▁poland	-11.7068
▁subsequent	-11.7068
▁vulnerab	-11.7068
▁eternal	-11.7068
▁slice	-11.7068
▁foul	-11.7068
▁plow	-11.7068
▁saga	-11.7068
▁spectacle	-11.7069
▁el	-11.7071
▁variant	-11.7071
ku	-11.7073
▁comparabl	-11.7074
▁shameful	-11.7074
▁sufficient	-11.7078
▁reliable	-11.7079
▁conce	-11.7088
oon	-11.7103
▁steering	-11.712
▁recomended	-11.7128
▁cl	-11.7146
ator	-11.7149
▁hesitat	-11.7166
hi	-11.7167
▁agil	-11.7178
abo	-11.7179
book	-11.7192
smart	-11.7192
lord	-11.7192
▁bol	-11.7199
ncy	-11.721
▁mann	-11.7214
▁timeline	-11.7215
▁sing	-11.7215
▁sin	-11.7226
ounce	-11.7228
▁bastard	-11.7232
▁galore	-11.7232
▁intrusi	-11.7232
▁sharedfiles	-11.7232
▁starbreeze	-11.7232
▁transparen	-11.7232
▁sensitive	-11.7232
▁gritt	-11.7232
▁rogue	-11.7232
▁arise	-11.7232
▁wwii	-11.7232
▁glorif	-11.7232
▁bombard	-11.7233
▁deathmatch	-11.7233
▁suspect	-11.7236
cid	-11.7237
▁lady	-11.724
▁fluidity	-11.7241
▁talented	-11.7246
▁salty	-11.7248
▁rapidly	-11.7248
▁greet	-11.7251
rous	-11.7253
angle	-11.7274
▁fist	-11.7275
itive	-11.729
▁sec	-11.7291
▁inform	-11.7296
▁bin	-11.7312
ung	-11.7343
roll	-11.7343
▁rub	-11.7343
▁whom	-11.7344
▁enjoyer	-11.7349
▁changer	-11.7355
▁hav	-11.7377
rent	-11.7386
form	-11.7387
bound	-11.7393
▁intrica	-11.7395
▁disrespect	-11.7395
▁adhd	-11.7398
▁erdtree	-11.7398
▁ourselves	-11.7398
▁tinker	-11.7398
teem	-11.7399
▁glue	-11.7399
▁battery	-11.7399
▁cream	-11.7399
▁hoop	-11.7399
▁bridge	-11.7399
law	-11.7399
▁breeze	-11.74
▁helm	-11.74
▁leap	-11.7401
▁prevalent	-11.7402
▁affordable	-11.7407
▁alley	-11.741
▁print	-11.7417
▁backup	-11.7426
ong	-11.7472
▁fir	-11.7472
▁norm	-11.7479
▁rotat	-11.7486
▁qui	-11.7489
▁specs	-11.7527
▁addicted	-11.754
▁vet	-11.7543
weet	-11.7557
▁asymmetric	-11.7568
▁cocaine	-11.7568
▁coffee	-11.7568
▁crapcom	-11.7568
▁motor	-11.7568
▁province	-11.7568
▁cluster	-11.7568
▁compliment	-11.7568
▁georg	-11.7568
▁pedal	-11.7568
▁gross	-11.7568
urban	-11.7568
▁destination	-11.7568
▁sister	-11.7569
▁corpse	-11.7569
▁communist	-11.7569
▁austria	-11.7569
▁tryhard	-11.757
▁fourth	-11.7571
▁backdrop	-11.7572
▁colla	-11.7573
▁devil	-11.7573
▁gf	-11.7581
rabbi	-11.7586
▁lively	-11.7591
hol	-11.7598
▁fewer	-11.7608
▁trough	-11.7615
▁loo	-11.7631
▁disc	-11.7631
powered	-11.7652
▁asia	-11.7659
▁accumulate	-11.7662
tics	-11.7699
▁tra	-11.7705
▁lasting	-11.7713
▁whim	-11.7723
▁frag	-11.7728
▁accelerat	-11.774
▁algorithm	-11.774
▁appropriate	-11.774
▁autosave	-11.774
▁bohemia	-11.774
▁chip	-11.774
▁engross	-11.774
▁forgiving	-11.774
▁modifier	-11.774
▁perceive	-11.774
▁repetition	-11.774
▁mtx	-11.774
▁offense	-11.774
▁memoriz	-11.774
▁approve	-11.7741
▁frick	-11.7741
▁rude	-11.7741
▁undermine	-11.7742
▁blink	-11.7742
▁competitively	-11.7744
▁agreement	-11.7745
▁protector	-11.7745
▁candy	-11.7747
▁beefy	-11.7747
▁sha	-11.775
▁unforgivable	-11.775
▁enjoyed	-11.7755
ail	-11.7756
▁meant	-11.7766
▁bio	-11.778
▁collectable	-11.7786
▁volta	-11.7788
▁rusty	-11.7794
ged	-11.7798
▁fo	-11.7821
▁was	-11.7823
▁fixed	-11.783
▁writer	-11.7853
▁automat	-11.786
ned	-11.7874
match	-11.7875
▁atm	-11.788
▁pri	-11.7914
rror	-11.7914
redefine	-11.7916
▁ambitious	-11.7916
▁conquest	-11.7916
▁database	-11.7916
▁degrade	-11.7916
▁intelligence	-11.7916
▁slip	-11.7916
▁violence	-11.7916
▁backstory	-11.7916
▁couch	-11.7916
▁frost	-11.7916
▁president	-11.7916
▁agenda	-11.7916
▁cessp	-11.7916
▁output	-11.7916
▁thread	-11.7916
▁litter	-11.7916
▁vanish	-11.7916
▁devote	-11.7917
▁cabin	-11.7917
▁necessity	-11.7917
▁specie	-11.7918
▁safety	-11.7919
▁interrupt	-11.792
▁grapple	-11.7921
▁exploring	-11.7922
▁sto	-11.7926
▁separately	-11.7941
▁arpg	-11.7942
▁eagerly	-11.7951
mate	-11.7954
▁pity	-11.7975
tick	-11.7982
▁entr	-11.7984
▁aimless	-11.7991
▁gambl	-11.8006
▁hon	-11.8013
▁uni	-11.8017
bling	-11.8026
▁camping	-11.8034
▁usable	-11.804
zi	-11.8051
official	-11.8054
course	-11.8055
lan	-11.8068
▁collaborat	-11.8091
▁universal	-11.8094
undan	-11.8094
▁enrich	-11.8094
▁geforce	-11.8094
▁pupp	-11.8094
▁unreliable	-11.8094
▁unsatisfying	-11.8094
▁violent	-11.8094
▁chef	-11.8094
▁align	-11.8094
▁puls	-11.8095
▁yellow	-11.8095
▁artstyle	-11.8095
▁cease	-11.8096
▁boredom	-11.8097
▁entic	-11.8097
▁replacement	-11.8102
▁comer	-11.8105
▁dun	-11.811
▁vii	-11.8112
▁octo	-11.8112
▁maxing	-11.8118
lp	-11.8132
▁whi	-11.8137
▁su	-11.8191
▁wi	-11.82
world	-11.8217
▁ty	-11.8228
▁towns	-11.823
bush	-11.8236
▁lone	-11.8256
loppy	-11.8271
ease	-11.8275
▁brawlhalla	-11.8276
▁gunfight	-11.8276
▁labyrinth	-11.8276
▁monopoly	-11.8276
▁nexus	-11.8276
▁therapy	-11.8276
▁chew	-11.8276
▁imho	-11.8276
▁logistics	-11.8276
▁salva	-11.8276
▁owe	-11.8277
▁ditch	-11.8277
▁maze	-11.8277
▁dissapointed	-11.8278
▁plz	-11.8278
▁radical	-11.8279
▁funnier	-11.828
▁corn	-11.828
▁mail	-11.8281
▁portray	-11.8282
▁collective	-11.8288
▁km	-11.8292
▁recovery	-11.8299
hole	-11.8301
racing	-11.8307
▁curs	-11.8311
▁artificially	-11.8312
▁rep	-11.8327
▁indicat	-11.8328
▁ascended	-11.8335
▁fastest	-11.834
▁camo	-11.8343
▁calming	-11.8348
▁stealthy	-11.8383
▁sunk	-11.8391
▁ko	-11.8407
▁wand	-11.8439
cut	-11.8442
itude	-11.8452
▁broke	-11.8459
▁predict	-11.8461
▁brazil	-11.8461
▁brilliance	-11.8461
▁executive	-11.8461
▁furniture	-11.8461
▁immortal	-11.8461
▁pipe	-11.8461
▁tomorrow	-11.8461
▁imaginable	-11.8461
▁cement	-11.8461
▁cohesive	-11.8462
▁octa	-11.8462
▁ffs	-11.8462
▁yard	-11.8462
▁glance	-11.8463
▁firm	-11.8463
▁hover	-11.8464
▁intelligent	-11.8464
▁deploy	-11.8464
▁deadlock	-11.8464
▁primal	-11.8467
▁scarce	-11.8467
▁madness	-11.8471
▁questline	-11.8473
▁temper	-11.8478
▁overload	-11.8483
▁lion	-11.849
▁modernize	-11.8498
esis	-11.8499
▁losing	-11.8506
▁coz	-11.8509
▁skills	-11.8512
▁tilt	-11.8534
▁boo	-11.8545
▁ez	-11.8566
▁wine	-11.8573
▁honesty	-11.858
▁hal	-11.8589
ular	-11.8594
rid	-11.8603
tre	-11.8604
cycle	-11.8612
▁activ	-11.8622
▁investigat	-11.8625
loom	-11.8627
▁aren	-11.8641
▁moveset	-11.8641
▁corp	-11.8644
izz	-11.8649
liance	-11.865
▁reinforce	-11.865
▁ecosystem	-11.865
▁fumble	-11.865
▁helldivers	-11.865
▁inherent	-11.865
▁minigun	-11.865
▁podcast	-11.865
▁principle	-11.865
▁promising	-11.865
▁violate	-11.865
▁suspicious	-11.865
▁demonstrat	-11.865
▁corr	-11.865
▁smith	-11.865
▁merit	-11.865
▁prize	-11.865
▁congratulation	-11.865
▁uneven	-11.8651
▁loan	-11.8652
▁madden	-11.8654
▁quad	-11.8657
▁processor	-11.8663
▁brr	-11.8676
ookie	-11.8679
▁mhr	-11.8684
post	-11.8686
▁mc	-11.8694
▁micromanage	-11.8695
▁sam	-11.8696
▁calculate	-11.8734
▁confused	-11.8741
▁statistic	-11.8749
cing	-11.8749
strain	-11.8752
▁definat	-11.8788
iger	-11.8788
▁chur	-11.8791
▁pricey	-11.88
think	-11.8803
▁eg	-11.8805
▁immediate	-11.8824
▁doxx	-11.8827
▁wage	-11.8829
tune	-11.8832
▁controvers	-11.8842
▁revel	-11.8842
▁argument	-11.8842
▁gleam	-11.8842
▁krafton	-11.8842
▁november	-11.8842
▁organic	-11.8842
▁piracy	-11.8842
▁rarity	-11.8842
▁riot	-11.8842
▁satisfied	-11.8842
▁sweep	-11.8842
▁thief	-11.8842
▁asleep	-11.8842
▁abomination	-11.8842
skippable	-11.8843
▁locate	-11.8843
▁compose	-11.8843
▁screwball	-11.8843
▁lake	-11.8843
▁confusion	-11.8843
▁cartoonish	-11.8844
▁dumbass	-11.8844
▁radar	-11.8845
▁dub	-11.8845
▁zen	-11.8847
▁resemble	-11.8848
▁jk	-11.8849
▁mentality	-11.8852
aft	-11.886
ically	-11.8868
lew	-11.887
▁aoe	-11.8876
▁smarter	-11.8879
uss	-11.8887
▁thrust	-11.8895
gic	-11.8898
ddy	-11.8909
ode	-11.8911
▁apps	-11.8918
▁scared	-11.8921
vade	-11.8932
vy	-11.8952
▁pee	-11.8967
▁lite	-11.8967
cial	-11.8981
sword	-11.8997
▁tid	-11.9013
▁brawl	-11.9038
▁excellence	-11.9038
▁jumpscare	-11.9038
▁kaiserreich	-11.9038
▁martin	-11.9038
▁otto	-11.9038
▁relieve	-11.9038
▁sauce	-11.9038
▁snappy	-11.9038
▁lowkey	-11.9038
▁pole	-11.9038
▁wilderness	-11.9038
▁convey	-11.9038
commod	-11.9038
▁adequate	-11.9038
▁guilt	-11.9038
▁civilian	-11.9039
▁marketplace	-11.9039
▁copper	-11.9039
▁spectat	-11.904
▁collab	-11.904
▁funner	-11.9041
▁yep	-11.9042
ckey	-11.9043
▁unbanned	-11.9043
▁renew	-11.9044
▁extensi	-11.9046
▁awareness	-11.9046
▁minigames	-11.9053
▁profitable	-11.906
▁definite	-11.9078
▁efficiently	-11.9087
▁defy	-11.9128
stand	-11.9135
▁advertis	-11.9165
state	-11.9166
▁apple	-11.9171
▁observe	-11.918
▁pat	-11.9196
idor	-11.9198
thunder	-11.9199
ven	-11.9206
▁ski	-11.9215
dv	-11.9223
▁circu	-11.9237
▁amulet	-11.9238
▁anomaly	-11.9238
▁avatar	-11.9238
▁flora	-11.9238
▁froze	-11.9238
▁fruit	-11.9238
▁hobby	-11.9238
▁kennedy	-11.9238
▁lovable	-11.9238
▁mvm	-11.9238
▁nonsensical	-11.9238
▁obliterate	-11.9238
▁ordinary	-11.9238
▁quantity	-11.9238
▁redesign	-11.9238
▁ruthless	-11.9238
▁surrender	-11.9238
▁whack	-11.9238
▁coffin	-11.9238
▁dmg	-11.9238
▁migrat	-11.9238
▁bount	-11.9238
▁alert	-11.9239
▁tragic	-11.9239
▁identif	-11.9239
▁compound	-11.9239
▁wound	-11.9239
▁distribution	-11.924
▁desk	-11.9241
▁worm	-11.9241
▁refinement	-11.9242
uri	-11.9244
▁flicker	-11.9246
▁handling	-11.9246
dable	-11.9249
lend	-11.9255
▁dial	-11.9264
▁minority	-11.9264
▁ru	-11.9269
kit	-11.927
▁eras	-11.9283
▁gripp	-11.9283
▁hd	-11.9284
▁standing	-11.9294
▁peek	-11.9301
▁upper	-11.9302
▁pill	-11.931
lace	-11.9334
▁fur	-11.9346
ron	-11.935
▁bud	-11.9371
lu	-11.9372
▁upgrad	-11.9402
▁intentional	-11.9423
▁hy	-11.9429
▁temporar	-11.9431
▁hug	-11.9439
▁suspen	-11.9442
sibility	-11.9442
▁coloniz	-11.9442
legate	-11.9442
▁aforementioned	-11.9442
▁completly	-11.9442
▁dwindle	-11.9442
▁enemie	-11.9442
▁friday	-11.9442
▁heartfelt	-11.9442
▁inaccessible	-11.9442
▁maniac	-11.9442
▁marathon	-11.9442
▁twenty	-11.9442
▁whisper	-11.9442
▁paranoi	-11.9443
▁infant	-11.9443
▁singular	-11.9443
▁nook	-11.9443
▁lunch	-11.9443
▁garden	-11.9443
▁alarm	-11.9443
▁hahaha	-11.9443
▁spring	-11.9443
▁psychological	-11.9443
▁adopt	-11.9443
▁fragment	-11.9444
▁taming	-11.9444
▁gaben	-11.9444
▁ambience	-11.9445
▁grain	-11.9445
▁preset	-11.9445
▁nine	-11.9446
▁contest	-11.9447
▁scammer	-11.9447
▁peril	-11.9448
▁durability	-11.9456
▁wherever	-11.9462
▁dying	-11.9464
▁architectur	-11.9475
▁sean	-11.9477
▁bomber	-11.9524
▁bing	-11.953
▁pursue	-11.9555
born	-11.9558
mmunit	-11.9559
▁grub	-11.9565
▁infra	-11.9582
amper	-11.9583
▁allure	-11.9585
▁analys	-11.9589
▁messy	-11.959
weight	-11.9619
stability	-11.9638
▁stink	-11.9639
▁evolved	-11.9642
▁innovat	-11.9647
▁wasn	-11.965
▁virgin	-11.965
▁cashgrab	-11.9651
▁compensation	-11.9651
▁ideology	-11.9651
▁infamous	-11.9651
▁koei	-11.9651
▁macro	-11.9651
▁reserve	-11.9651
▁rhythm	-11.9651
▁tranquil	-11.9651
▁understatement	-11.9651
▁infern	-11.9651
▁slaughter	-11.9651
▁controversial	-11.9651
▁capitalism	-11.9651
incident	-11.9652
▁tether	-11.9652
▁tiresome	-11.9652
quel	-11.9652
▁loyalty	-11.9652
▁gall	-11.9653
▁scarier	-11.9653
▁james	-11.9653
▁contender	-11.9654
▁reign	-11.9657
▁bold	-11.9662
gging	-11.9665
▁advers	-11.9666
▁baked	-11.9668
▁cus	-11.9677
▁seal	-11.9688
▁elevat	-11.9689
▁haunting	-11.9706
▁orbit	-11.971
ember	-11.9723
▁mud	-11.9726
▁exer	-11.973
▁plate	-11.9735
▁unlikely	-11.9739
▁mobas	-11.9745
▁pursu	-11.9748
▁booty	-11.9759
▁critic	-11.976
▁emergen	-11.9762
▁brak	-11.9768
sman	-11.9789
▁skillful	-11.9805
worthy	-11.9824
structure	-11.9824
evolve	-11.9827
▁positively	-11.9833
▁extrem	-11.9839
▁modder	-11.9846
games	-11.9856
icle	-11.9859
▁intent	-11.9861
▁abrupt	-11.9864
▁counterpart	-11.9864
▁kidnap	-11.9864
▁livonia	-11.9864
▁stimulat	-11.9864
▁vomit	-11.9864
▁abyss	-11.9864
▁detriment	-11.9864
▁cryptic	-11.9864
▁unusable	-11.9864
▁turd	-11.9864
▁benchmark	-11.9864
▁offend	-11.9864
▁android	-11.9864
▁subclass	-11.9864
▁hopeful	-11.9864
▁smth	-11.9864
▁parson	-11.9864
▁resistance	-11.9865
acity	-11.9865
▁crown	-11.9866
▁heighten	-11.9867
▁breach	-11.9867
▁impos	-11.9872
▁feat	-11.9872
▁distraction	-11.9872
▁lootboxes	-11.9874
bid	-11.9884
▁pel	-11.9886
banned	-11.9888
▁dinosaurs	-11.9903
▁locked	-11.9905
▁inject	-11.9926
▁overtime	-11.9928
dication	-11.9973
iss	-11.9981
▁pla	-11.9981
dging	-12.0001
long	-12.0029
dead	-12.004
▁myth	-12.0056
▁challange	-12.0059
▁gatekeep	-12.0066
▁stalk	-12.0071
▁backlash	-12.0081
▁bossfight	-12.0081
▁bravo	-12.0081
▁duplicate	-12.0081
▁filth	-12.0081
▁gravity	-12.0081
▁unenjoyable	-12.0081
▁violation	-12.0081
▁ludicrous	-12.0081
▁autism	-12.0081
▁court	-12.0081
▁gauge	-12.0081
▁micromanagement	-12.0082
▁comfortably	-12.0083
▁personalization	-12.0084
▁representation	-12.0085
▁assistance	-12.0087
▁obligat	-12.0088
▁defiant	-12.0088
▁mercy	-12.0089
▁pickup	-12.0089
▁mexic	-12.009
▁advancement	-12.009
▁mesmeriz	-12.0092
author	-12.0092
▁buggie	-12.0092
▁adventur	-12.0093
▁stu	-12.0097
▁gui	-12.012
▁indian	-12.0122
tk	-12.013
lette	-12.013
rake	-12.0141
tamina	-12.0146
smic	-12.0148
▁sue	-12.017
convenience	-12.0195
climate	-12.0204
▁numb	-12.0218
▁grate	-12.0229
▁armory	-12.0233
port	-12.0251
mine	-12.0258
front	-12.026
trap	-12.0261
▁organize	-12.0262
keep	-12.0262
existent	-12.0263
ways	-12.0265
▁qua	-12.0275
▁rad	-12.0276
tail	-12.0283
▁unity	-12.03
bris	-12.0301
illion	-12.0302
▁apologize	-12.0303
▁bruh	-12.0303
▁clarity	-12.0303
▁convert	-12.0303
▁despair	-12.0303
▁discontinue	-12.0303
▁handheld	-12.0303
▁miracle	-12.0303
▁musc	-12.0303
▁pizza	-12.0303
▁swamp	-12.0303
▁ultrawide	-12.0303
▁backtrack	-12.0303
▁misery	-12.0303
▁prison	-12.0303
▁resilience	-12.0303
▁gutted	-12.0304
▁mario	-12.0304
▁banner	-12.0304
▁versa	-12.0304
▁landmine	-12.0304
▁sophisticated	-12.0304
▁disposal	-12.0305
▁stair	-12.0306
▁wong	-12.0308
▁philosophy	-12.0309
atus	-12.0309
▁horn	-12.031
▁blaze	-12.0312
▁grave	-12.0319
con	-12.0326
▁upscaling	-12.0334
venu	-12.0382
nest	-12.0384
▁palp	-12.0389
the	-12.0393
▁rou	-12.0403
ama	-12.0405
▁inconvenience	-12.0413
▁prepared	-12.0427
▁barre	-12.0432
▁hotfix	-12.045
▁finest	-12.0474
fuse	-12.048
ries	-12.0483
tain	-12.0493
▁oppress	-12.0505
▁individually	-12.0517
▁nigh	-12.0522
▁respectful	-12.0523
iage	-12.0526
ction	-12.0526
ector	-12.0527
▁administrat	-12.053
▁invincib	-12.053
▁acrobatic	-12.053
▁divorce	-12.053
▁england	-12.053
▁epitom	-12.053
▁fabulous	-12.053
▁forfeit	-12.053
▁lebron	-12.053
▁liberal	-12.053
▁nsfw	-12.053
▁plentiful	-12.053
▁redundant	-12.053
▁spaghetti	-12.053
▁unlucky	-12.053
▁workaround	-12.053
▁beforehand	-12.053
▁gdp	-12.053
▁sidequest	-12.053
▁worldbuilding	-12.053
▁salary	-12.053
▁poly	-12.0531
▁tek	-12.0531
▁amuse	-12.0531
▁joystick	-12.0531
▁feline	-12.0532
▁sensation	-12.0532
▁attractive	-12.0532
▁chosen	-12.0532
▁bike	-12.0532
▁dice	-12.0536
trum	-12.0537
▁qte	-12.0537
▁steve	-12.0537
▁lab	-12.0537
▁slider	-12.0543
▁thirt	-12.0543
▁sloppy	-12.0544
▁wasteland	-12.0544
▁endnight	-12.0547
▁amid	-12.0549
▁pleased	-12.0553
ology	-12.0562
▁portable	-12.0566
▁tease	-12.0575
▁signal	-12.0584
▁financially	-12.0587
▁math	-12.0596
▁festiv	-12.0597
lure	-12.0597
▁whine	-12.0604
rico	-12.0605
▁severs	-12.0623
hydr	-12.0628
▁scr	-12.0632
eviat	-12.0646
▁fullest	-12.0668
▁ignor	-12.0679
▁formi	-12.0702
stock	-12.0724
hill	-12.0724
▁punishing	-12.0742
▁addon	-12.0748
▁hum	-12.0756
▁efficien	-12.0758
▁inconsisten	-12.0758
▁bun	-12.076
▁approximat	-12.0763
▁appreciation	-12.0763
▁believable	-12.0763
▁congrats	-12.0763
▁cumbersome	-12.0763
▁disturb	-12.0763
▁eternity	-12.0763
▁halloween	-12.0763
▁happier	-12.0763
▁hurdle	-12.0763
▁krauser	-12.0763
▁marriage	-12.0763
▁revolt	-12.0763
▁symbol	-12.0763
▁bummer	-12.0763
▁hmm	-12.0763
▁suspension	-12.0763
▁rick	-12.0763
▁eachother	-12.0763
▁borrow	-12.0763
▁demolish	-12.0763
▁endear	-12.0763
▁husk	-12.0763
▁jewel	-12.0763
▁sept	-12.0764
▁aggr	-12.0765
▁shrink	-12.0765
▁borderland	-12.0765
▁vram	-12.0766
▁convention	-12.0766
▁advertisement	-12.0766
▁cunt	-12.0767
▁authenticity	-12.0768
▁nvme	-12.0768
▁desolate	-12.077
▁tolerable	-12.0772
▁medal	-12.0774
cade	-12.0778
▁bearable	-12.0782
▁methodical	-12.0783
▁clueless	-12.0787
mon	-12.0789
▁whims	-12.079
▁hearted	-12.0796
uge	-12.0796
nna	-12.0796
▁showcas	-12.0797
▁variable	-12.0802
chet	-12.0803
▁superman	-12.0807
▁wis	-12.0808
▁racing	-12.0815
▁patro	-12.0818
▁wt	-12.0828
▁effortless	-12.0864
▁union	-12.0868
▁rod	-12.087
nel	-12.0881
▁speedrun	-12.0933
▁boggl	-12.0935
▁lad	-12.0961
folk	-12.0961
consider	-12.0961
stay	-12.0971
▁religious	-12.0975
▁ci	-12.0976
ight	-12.0985
▁coup	-12.099
▁blur	-12.1
▁cinema	-12.1
▁expens	-12.1001
▁pathfind	-12.1001
▁cruel	-12.1001
▁escalat	-12.1001
▁mislead	-12.1001
▁pitiful	-12.1001
▁preserve	-12.1001
▁ptsd	-12.1001
▁pussy	-12.1001
▁recommand	-12.1001
▁redownload	-12.1001
▁resonate	-12.1001
▁samurai	-12.1001
▁shareholder	-12.1001
▁substitut	-12.1001
▁swipe	-12.1001
▁eafc	-12.1001
▁river	-12.1001
▁culminat	-12.1001
▁nyc	-12.1001
▁joe	-12.1001
▁flair	-12.1002
▁empower	-12.1002
slaught	-12.1002
▁surf	-12.1002
▁poi	-12.1003
▁gentle	-12.1003
▁smh	-12.1003
▁quint	-12.1003
▁smg	-12.1004
▁obe	-12.1004
▁eso	-12.1005
▁starship	-12.1008
▁childish	-12.1008
▁abundant	-12.1009
▁fol	-12.1012
▁dreadful	-12.1015
othe	-12.1024
▁purchas	-12.1042
▁witcher	-12.1054
▁tail	-12.1058
▁trader	-12.1061
▁shed	-12.1064
bil	-12.1067
lick	-12.1092
▁avail	-12.1096
minate	-12.1105
comprehensible	-12.1127
▁ess	-12.1136
thing	-12.1138
ural	-12.1157
godly	-12.1157
elda	-12.1161
own	-12.1175
▁mach	-12.1189
▁config	-12.1202
▁hid	-12.1205
stream	-12.1205
bone	-12.1217
▁wii	-12.1223
air	-12.1245
▁aggravate	-12.1245
▁cautious	-12.1245
▁chernarus	-12.1245
▁collision	-12.1245
▁dogfight	-12.1245
▁dominance	-12.1245
▁flourish	-12.1245
▁inducing	-12.1245
▁nutshell	-12.1245
▁obsolete	-12.1245
▁truckersmp	-12.1245
▁unravel	-12.1245
▁waifu	-12.1245
▁pfg	-12.1245
▁sewer	-12.1245
▁disjoint	-12.1245
▁elder	-12.1245
▁rmt	-12.1245
▁vpn	-12.1245
▁abstract	-12.1245
▁bubble	-12.1245
▁tooltip	-12.1245
▁blurry	-12.1246
▁butcher	-12.1246
▁laziness	-12.1246
phant	-12.1246
▁yup	-12.1247
▁negotiation	-12.1247
▁shack	-12.1248
▁existential	-12.1249
▁glider	-12.1249
▁lifestyle	-12.125
fence	-12.1251
▁programmer	-12.1254
▁throne	-12.1254
▁rx	-12.1262
▁gc	-12.1267
▁happend	-12.1273
▁destructib	-12.1284
▁dish	-12.129
▁duration	-12.1315
ently	-12.1317
▁lee	-12.1326
▁insight	-12.1344
inal	-12.1345
▁flaws	-12.1349
ustr	-12.1353
▁upside	-12.1368
▁regress	-12.1376
▁woo	-12.1378
aire	-12.1389
▁juggl	-12.1397
▁sir	-12.1429
wise	-12.1442
▁deer	-12.1454
plane	-12.1455
write	-12.1455
▁brut	-12.1471
▁thre	-12.1476
▁screaming	-12.1483
▁europ	-12.1489
▁comprehen	-12.1495
▁aberration	-12.1495
▁abhorrent	-12.1495
▁contemplate	-12.1495
▁doctor	-12.1495
▁hypermotion	-12.1495
▁nelson	-12.1495
▁reccommend	-12.1495
▁retrieve	-12.1495
▁skyscraper	-12.1495
▁stomach	-12.1495
▁subnautica	-12.1495
▁supreme	-12.1495
▁understood	-12.1495
▁splash	-12.1495
▁unrel	-12.1495
▁vista	-12.1495
▁verbal	-12.1495
▁determination	-12.1495
▁limb	-12.1495
▁captain	-12.1495
▁eula	-12.1496
▁savage	-12.1496
▁grandpa	-12.1497
▁educational	-12.1497
▁dictat	-12.1498
▁rog	-12.1498
▁leadership	-12.1499
▁choppy	-12.15
▁showdown	-12.1501
▁toleran	-12.1503
▁aimbotting	-12.1503
▁fame	-12.1505
▁coheren	-12.1507
▁fanatic	-12.1509
▁winning	-12.151
▁validate	-12.1511
▁emulate	-12.1514
▁robotic	-12.1515
▁provok	-12.1519
▁fulfilling	-12.1521
semble	-12.1525
▁exotics	-12.1534
▁alienat	-12.1536
mitigate	-12.1536
▁qualif	-12.1539
▁stupidity	-12.1542
▁youtuber	-12.1555
▁centr	-12.1557
▁powered	-12.1569
city	-12.159
▁flower	-12.1593
duction	-12.1605
▁cooking	-12.1623
reach	-12.1649
ina	-12.168
▁cab	-12.1694
▁monument	-12.1725
▁curate	-12.173
▁ragdoll	-12.1731
atory	-12.174
duct	-12.1743
▁robber	-12.1744
▁phenomen	-12.1744
illusion	-12.1751
▁concrete	-12.1751
▁gaiden	-12.1751
▁infamy	-12.1751
▁journal	-12.1751
▁parameter	-12.1751
▁prominent	-12.1751
▁radius	-12.1751
▁suicidal	-12.1751
▁superficial	-12.1751
▁tendency	-12.1751
▁unpleasant	-12.1751
▁jerry	-12.1751
ympho	-12.1751
▁crumbl	-12.1751
▁buildcrafting	-12.1751
▁isolate	-12.1751
▁suprise	-12.1751
▁fyi	-12.1751
▁overlay	-12.1751
▁civilisation	-12.1752
▁monetar	-12.1752
▁ussr	-12.1752
▁huh	-12.1753
▁confront	-12.1754
▁bench	-12.1754
▁exile	-12.1754
▁dire	-12.1755
▁disrespectful	-12.1757
▁exec	-12.1762
▁infection	-12.1765
▁moddable	-12.1766
▁daddy	-12.1767
▁conscious	-12.1769
utic	-12.1773
▁meantime	-12.1774
azu	-12.1781
▁attain	-12.1787
▁zombies	-12.1791
▁overarch	-12.1793
ign	-12.1795
▁vein	-12.1797
▁dodo	-12.1798
▁hopeless	-12.1805
▁healer	-12.181
umm	-12.1814
▁handler	-12.1818
stick	-12.1818
▁dei	-12.184
reak	-12.1842
▁closed	-12.1848
▁teacher	-12.1851
▁restarts	-12.1855
▁revis	-12.1873
recognizable	-12.1886
lies	-12.1889
▁sanct	-12.1897
ude	-12.19
▁clarif	-12.1905
▁bogg	-12.1926
lous	-12.1929
▁unwa	-12.194
ibly	-12.1961
ware	-12.1962
▁tha	-12.1969
unknown	-12.1975
wood	-12.1975
▁brilliantly	-12.1978
▁ng	-12.198
▁cure	-12.198
away	-12.1998
▁mort	-12.2013
plore	-12.2014
▁censor	-12.2014
▁embod	-12.2015
consequent	-12.2015
▁colonial	-12.2015
▁cranny	-12.2015
▁electronic	-12.2015
▁entitle	-12.2015
▁fifth	-12.2015
▁gigabyte	-12.2015
▁isolation	-12.2015
▁pioneer	-12.2015
▁revitaliz	-12.2015
▁comms	-12.2015
▁inclusive	-12.2015
▁fascinating	-12.2015
▁mushroom	-12.2015
▁vital	-12.2015
▁tedium	-12.2015
▁freezing	-12.2015
▁celebration	-12.2015
▁promotion	-12.2015
▁intact	-12.2015
▁wick	-12.2015
▁ambition	-12.2015
▁heli	-12.2015
▁delica	-12.2015
▁grim	-12.2016
▁eric	-12.2016
▁terminal	-12.2017
▁fantastical	-12.2017
▁rollback	-12.2018
▁walt	-12.2018
▁repet	-12.2019
▁rug	-12.2019
▁epi	-12.2021
▁whip	-12.2021
rink	-12.2022
▁cookie	-12.2023
ift	-12.2027
achu	-12.2028
ican	-12.203
▁agriculture	-12.203
umor	-12.2032
▁rb	-12.205
▁summoner	-12.2053
▁mul	-12.2056
▁header	-12.2059
▁sadness	-12.206
arrange	-12.2096
mic	-12.2098
acon	-12.2099
▁faci	-12.2102
phobia	-12.2114
ient	-12.2118
▁closet	-12.2121
▁brainless	-12.2123
▁incentivize	-12.2128
▁tu	-12.2147
▁scen	-12.2156
onald	-12.2176
▁arse	-12.2191
done	-12.2194
▁capitalist	-12.2216
compass	-12.2222
▁wil	-12.2233
sight	-12.2237
jack	-12.2245
charge	-12.2245
football	-12.2245
▁beac	-12.2253
▁rapid	-12.2258
ocate	-12.2261
▁stead	-12.2277
▁starv	-12.2277
▁flick	-12.2278
▁lazi	-12.2284
▁comfy	-12.2285
▁grafics	-12.2285
▁pyro	-12.2285
▁rehash	-12.2285
▁unstoppable	-12.2285
▁vanguard	-12.2285
yield	-12.2285
▁cyber	-12.2285
▁unsettl	-12.2285
▁elitis	-12.2285
▁engram	-12.2285
▁campfire	-12.2285
▁aura	-12.2286
nable	-12.2286
▁purposefully	-12.2286
▁retrea	-12.2286
▁shore	-12.2287
▁popup	-12.2287
▁underdevelop	-12.2289
▁thx	-12.2289
▁consisten	-12.2289
▁mortal	-12.229
erbat	-12.2293
▁dimensional	-12.2296
▁vacation	-12.2299
▁mog	-12.2301
heft	-12.2309
▁religiously	-12.2316
▁nose	-12.2319
▁reader	-12.2321
▁plank	-12.2323
nite	-12.2323
anda	-12.2325
▁weigh	-12.2329
▁twin	-12.2332
▁ether	-12.235
▁legally	-12.2354
▁yay	-12.2401
▁aggressively	-12.2442
▁customiz	-12.2443
▁modul	-12.2445
▁mos	-12.2452
dom	-12.2463
real	-12.2487
▁coming	-12.2508
rek	-12.2517
ership	-12.252
▁irr	-12.2528
bow	-12.2529
▁glide	-12.2558
▁monoton	-12.2561
▁poke	-12.2563
▁absorb	-12.2563
▁amplify	-12.2563
▁degenerate	-12.2563
▁exaggeration	-12.2563
▁fluff	-12.2563
▁hentai	-12.2563
▁immaculate	-12.2563
▁nextbots	-12.2563
▁tiktok	-12.2563
▁timmy	-12.2563
▁unironically	-12.2563
▁volvo	-12.2563
▁thumper	-12.2563
▁chronic	-12.2563
▁unwilling	-12.2563
▁fold	-12.2563
▁referee	-12.2563
▁stem	-12.2563
▁hitler	-12.2563
▁elli	-12.2563
▁snowball	-12.2563
▁mansion	-12.2563
▁mock	-12.2563
▁stylis	-12.2566
▁repeatability	-12.257
▁nevermind	-12.2571
▁breakdown	-12.2573
▁garne	-12.2574
liant	-12.2574
▁gtav	-12.258
▁govern	-12.2584
▁swiftly	-12.2584
▁wc	-12.2587
▁oled	-12.259
▁outdo	-12.2596
▁vile	-12.2599
▁videogames	-12.2612
urn	-12.262
▁imma	-12.2643
▁assed	-12.2648
▁bf	-12.2649
gram	-12.2661
▁disabled	-12.2665
pping	-12.2672
▁alg	-12.2674
pot	-12.2711
fire	-12.2747
▁pilla	-12.2762
elf	-12.2808
▁heavi	-12.2821
place	-12.2822
▁brainer	-12.2828
▁minigame	-12.2829
▁invit	-12.2833
▁finn	-12.2834
▁instruct	-12.2845
▁accus	-12.2845
▁affinity	-12.2848
▁bethesda	-12.2848
▁clums	-12.2848
▁enthral	-12.2848
▁imperfect	-12.2848
▁inaccurate	-12.2848
▁obt	-12.2848
▁randos	-12.2848
▁ranni	-12.2848
▁recieve	-12.2848
▁seagull	-12.2848
▁sketchy	-12.2848
▁tragedy	-12.2848
▁medieval	-12.2848
▁untouch	-12.2848
▁moderator	-12.2848
▁zerg	-12.2848
▁toaster	-12.2849
▁prince	-12.2849
▁ignorant	-12.2849
▁composition	-12.2849
▁shelf	-12.2849
▁expire	-12.2849
▁rizz	-12.285
▁jail	-12.285
▁uhh	-12.285
▁stole	-12.2851
brid	-12.2851
▁plugin	-12.2851
▁zurks	-12.2854
ckon	-12.2855
▁hdr	-12.2855
▁liner	-12.2859
urance	-12.286
stories	-12.286
▁perpetual	-12.2861
▁promo	-12.2863
▁coward	-12.2863
▁beef	-12.2865
▁apartment	-12.2865
▁strats	-12.2868
precedent	-12.288
sistant	-12.288
▁collector	-12.2884
▁axis	-12.2886
▁prow	-12.2893
▁overrate	-12.2896
▁sens	-12.2902
▁poll	-12.2905
umb	-12.2906
▁interfere	-12.2906
maker	-12.2925
vision	-12.2928
immer	-12.294
▁numbing	-12.2947
▁breathing	-12.2947
ogical	-12.2952
▁organis	-12.2953
kept	-12.2977
▁lev	-12.299
▁spine	-12.2994
▁programm	-12.3036
▁margin	-12.304
▁wag	-12.3051
▁fella	-12.3053
frame	-12.3072
▁flee	-12.3104
▁diff	-12.3109
tract	-12.3114
ledge	-12.3122
▁strat	-12.3122
▁thankful	-12.3131
vern	-12.3132
surmount	-12.3142
▁bracket	-12.3142
▁cloaker	-12.3142
▁elixir	-12.3142
▁expirience	-12.3142
▁inexcusable	-12.3142
▁leisure	-12.3142
▁mutation	-12.3142
▁polite	-12.3142
▁prussia	-12.3142
▁renown	-12.3142
▁scumbag	-12.3142
▁tangible	-12.3142
▁radeon	-12.3142
▁conserv	-12.3142
▁frantic	-12.3143
▁decima	-12.3143
▁gatekept	-12.3143
▁labour	-12.3143
▁vids	-12.3143
▁belgi	-12.3143
▁multiverse	-12.3144
▁prequel	-12.3144
roud	-12.3146
new	-12.3146
▁grindfest	-12.3148
cat	-12.3151
▁sledge	-12.3154
▁estimat	-12.3156
▁lance	-12.3157
▁instalment	-12.3158
▁exploitation	-12.3162
▁tack	-12.3169
▁passage	-12.3169
▁aether	-12.3173
▁sur	-12.3173
▁commend	-12.3173
▁trauma	-12.3178
▁donation	-12.3179
ump	-12.3188
hm	-12.3196
▁defin	-12.3203
▁sane	-12.3203
▁sht	-12.3217
▁charger	-12.3218
▁defo	-12.3228
▁facet	-12.323
▁overwhelmed	-12.3235
▁vol	-12.3237
ju	-12.3243
▁nap	-12.3246
▁campy	-12.3284
▁hatch	-12.3286
▁astonishing	-12.3313
▁reworks	-12.3315
urger	-12.3322
▁undo	-12.3324
lute	-12.3341
▁prep	-12.3343
▁div	-12.3349
emic	-12.3391
ride	-12.3399
school	-12.3406
town	-12.3412
noon	-12.3419
sect	-12.3431
▁disast	-12.3435
▁recommen	-12.3437
▁pie	-12.3438
▁australia	-12.3442
▁alcohol	-12.3444
▁tec	-12.3445
▁april	-12.3445
▁contemporary	-12.3445
▁darksouls	-12.3445
▁eldri	-12.3445
▁emblem	-12.3445
▁exponentially	-12.3445
▁femboy	-12.3445
▁fraud	-12.3445
▁heartbeat	-12.3445
▁inconvenient	-12.3445
▁inexplicabl	-12.3445
▁majest	-12.3445
▁mutator	-12.3445
▁recreation	-12.3445
▁sentiment	-12.3445
▁vendor	-12.3445
▁sugar	-12.3445
▁endorse	-12.3446
▁fanboy	-12.3446
▁pokemon	-12.3446
▁votekick	-12.3446
▁bulk	-12.3446
▁ammount	-12.3446
▁meditati	-12.3446
capsul	-12.3446
▁wrench	-12.3446
▁macbook	-12.3446
▁accent	-12.3446
▁shirt	-12.3446
▁depart	-12.3446
ooh	-12.3446
▁lagging	-12.3446
▁digit	-12.3447
▁inept	-12.3447
▁linger	-12.3447
rangel	-12.3447
▁glam	-12.3449
▁utopia	-12.345
cule	-12.345
rade	-12.345
rence	-12.3453
▁mold	-12.3453
▁belt	-12.3454
▁grid	-12.3455
▁fiddle	-12.3457
deem	-12.3461
▁affi	-12.3467
▁depressed	-12.3468
▁awaken	-12.3468
▁instinct	-12.3472
▁refra	-12.3474
▁monumental	-12.3477
▁cage	-12.3477
cram	-12.3493
▁bale	-12.3503
▁kn	-12.3516
teen	-12.3536
▁reccomended	-12.3553
▁involved	-12.3565
ette	-12.3595
tub	-12.36
rted	-12.3602
▁traveler	-12.3608
▁calculat	-12.362
▁merc	-12.3628
reg	-12.3696
▁operat	-12.3707
master	-12.3708
loss	-12.3715
axis	-12.3718
graphic	-12.3718
second	-12.3718
mple	-12.3723
▁improv	-12.3723
sync	-12.3726
▁tube	-12.3728
▁reliabl	-12.3736
lum	-12.3739
▁respec	-12.375
ndition	-12.3753
▁expans	-12.3754
▁graph	-12.3757
▁narrat	-12.3758
▁turk	-12.3758
▁disapoint	-12.3758
▁ukrain	-12.3758
▁annihilat	-12.3758
▁bleak	-12.3758
▁chief	-12.3758
▁enviroment	-12.3758
▁gamebreaking	-12.3758
▁hospital	-12.3758
▁inappropriate	-12.3758
▁infiltrat	-12.3758
▁intellectual	-12.3758
▁liberty	-12.3758
▁nervous	-12.3758
▁preorder	-12.3758
▁privilege	-12.3758
▁reimagin	-12.3758
▁repercussion	-12.3758
▁rumble	-12.3758
▁satisfactory	-12.3758
▁turtle	-12.3758
▁wraith	-12.3758
▁gib	-12.3758
▁regain	-12.3758
▁affair	-12.3758
▁afterthought	-12.3758
▁gegen	-12.3758
▁horizontal	-12.3758
▁striking	-12.3758
▁caliber	-12.3758
▁remed	-12.3758
▁applau	-12.3758
▁baldur	-12.3758
▁luster	-12.3759
▁chad	-12.3759
▁nickel	-12.376
▁interven	-12.376
▁article	-12.3761
▁homework	-12.3761
▁username	-12.3762
▁coloss	-12.3763
▁qa	-12.3764
▁bath	-12.3769
▁bugged	-12.3771
tification	-12.3771
igue	-12.3772
mori	-12.3784
▁node	-12.3788
▁investor	-12.3796
▁tun	-12.3796
▁bam	-12.3798
▁specialize	-12.3809
▁container	-12.3822
lc	-12.3829
▁finess	-12.3834
▁refusal	-12.3842
▁alleg	-12.3846
▁homeless	-12.385
▁consen	-12.3851
▁soulslikes	-12.3879
pped	-12.3894
laid	-12.3897
aught	-12.3926
▁flex	-12.3993
lid	-12.3996
▁shocking	-12.4009
▁divisi	-12.4012
▁integr	-12.4037
camp	-12.4038
hammer	-12.4041
▁remarkabl	-12.4059
▁exac	-12.4076
topia	-12.4077
▁jew	-12.408
▁inhabit	-12.408
▁choke	-12.4081
▁disclose	-12.4081
▁enthusiasm	-12.4081
▁finicky	-12.4081
▁grievance	-12.4081
▁gyatt	-12.4081
▁humiliat	-12.4081
▁intertwine	-12.4081
▁jordan	-12.4081
▁katana	-12.4081
▁kitchen	-12.4081
▁mediocrity	-12.4081
▁neighbour	-12.4081
▁nurse	-12.4081
▁obscene	-12.4081
▁relatable	-12.4081
▁scissors	-12.4081
▁stroke	-12.4081
▁trilogy	-12.4081
▁unrewarding	-12.4081
▁unwelcom	-12.4081
▁cooperate	-12.4081
▁finance	-12.4081
▁titty	-12.4081
▁asinine	-12.4081
▁crunch	-12.4081
▁battlenet	-12.4081
▁sbc	-12.4081
▁canada	-12.4081
▁exquisite	-12.4081
▁incline	-12.4081
▁inhabitant	-12.4081
▁consumption	-12.4082
▁analyze	-12.4082
▁scariest	-12.4082
▁ironically	-12.4082
▁rebel	-12.4082
▁cosy	-12.4083
ignite	-12.4083
▁foolish	-12.4084
▁swf	-12.4086
▁dogma	-12.4089
▁hol	-12.4092
▁jea	-12.4093
▁agony	-12.4093
▁customis	-12.4095
▁productive	-12.4099
taking	-12.4099
▁ironic	-12.4102
▁purchasing	-12.4102
▁realization	-12.4105
▁taint	-12.4106
▁kb	-12.4107
▁duper	-12.4113
▁coil	-12.4118
▁bout	-12.4126
▁boomer	-12.4128
▁chuck	-12.4137
▁bay	-12.4138
nger	-12.4151
▁mira	-12.4154
▁desyncs	-12.4156
▁conceiv	-12.4169
▁negativ	-12.4185
▁drinking	-12.4189
▁depressing	-12.4211
▁spo	-12.4211
igi	-12.4226
▁miner	-12.4243
▁poe	-12.4253
erous	-12.4281
▁sting	-12.4286
▁brow	-12.4301
uire	-12.4318
resume	-12.4319
fest	-12.4327
▁fkin	-12.4336
met	-12.4337
walk	-12.4374
common	-12.4374
▁encourag	-12.4376
▁cliche	-12.4379
▁crow	-12.4403
▁rear	-12.4406
nflict	-12.4409
▁korea	-12.441
ticipation	-12.4414
ipher	-12.4414
▁balteus	-12.4414
▁bargain	-12.4414
▁crosshair	-12.4414
▁evaluat	-12.4414
▁extort	-12.4414
▁handicap	-12.4414
▁phasmo	-12.4414
▁prospect	-12.4414
▁skeleton	-12.4414
▁smilegate	-12.4414
▁unhapp	-12.4414
▁virtue	-12.4414
▁omni	-12.4414
▁pyromane	-12.4414
▁snake	-12.4414
▁skew	-12.4414
▁freddy	-12.4414
▁omin	-12.4414
▁tongue	-12.4414
▁explicit	-12.4414
▁vegeta	-12.4414
▁gambit	-12.4414
▁curator	-12.4414
▁repetative	-12.4414
▁bandai	-12.4414
▁humour	-12.4414
▁experiance	-12.4415
▁softlock	-12.4415
▁flank	-12.4415
▁whiff	-12.4415
▁molest	-12.4415
▁fascist	-12.4415
▁stunlock	-12.4416
▁prettier	-12.4416
▁consumable	-12.4417
▁bandage	-12.4418
▁accordingly	-12.4418
sition	-12.4418
fusion	-12.4418
▁luna	-12.4421
▁warlock	-12.4422
talism	-12.4424
▁strategically	-12.4426
kai	-12.4427
▁galactic	-12.4427
▁zeekerss	-12.4429
▁sho	-12.4435
▁uncomfortable	-12.4435
▁lego	-12.4436
▁matchup	-12.4445
▁freakin	-12.4448
▁deity	-12.4449
▁opus	-12.445
▁shrin	-12.4505
▁presum	-12.451
▁thou	-12.452
▁speedrunn	-12.452
▁lung	-12.4525
▁reb	-12.4529
press	-12.4537
▁grown	-12.455
▁controll	-12.456
▁incorrect	-12.456
▁downward	-12.4573
▁pov	-12.4591
hinge	-12.4624
▁surv	-12.4661
changed	-12.4667
▁nud	-12.4672
▁embarrassing	-12.4679
nag	-12.4685
▁heroin	-12.4686
▁india	-12.4695
ania	-12.4696
▁admir	-12.4708
▁consum	-12.4718
effective	-12.4719
direct	-12.4719
spread	-12.4719
lift	-12.4721
omm	-12.4732
▁prepar	-12.4733
▁qual	-12.4735
▁nazi	-12.4736
▁miserabl	-12.4738
▁esport	-12.4739
ption	-12.4741
▁cro	-12.475
▁sigh	-12.4751
▁buil	-12.4752
▁portra	-12.4754
▁kd	-12.4755
▁shade	-12.4757
prise	-12.4758
▁antagonist	-12.4759
▁catastroph	-12.4759
▁chamber	-12.4759
▁clunki	-12.4759
▁deceptive	-12.4759
▁globe	-12.4759
▁gratify	-12.4759
▁impersonat	-12.4759
▁inherit	-12.4759
▁lmfao	-12.4759
▁logitech	-12.4759
▁luxury	-12.4759
▁massacre	-12.4759
▁monstrosity	-12.4759
▁odyssey	-12.4759
▁poach	-12.4759
▁scrub	-12.4759
▁steroid	-12.4759
▁surviving	-12.4759
▁vessel	-12.4759
▁yikes	-12.4759
▁accustom	-12.4759
▁donkey	-12.4759
▁fluctuat	-12.4759
▁geopolitic	-12.4759
▁overtuned	-12.4759
▁darkrp	-12.4759
▁skate	-12.4759
▁inaction	-12.4759
▁revelio	-12.4759
▁torrent	-12.4759
puff	-12.4759
▁submarine	-12.4759
vocal	-12.476
▁prosper	-12.476
▁rotten	-12.476
▁caught	-12.4761
▁preview	-12.4761
▁dogwater	-12.4762
▁shred	-12.4763
▁australian	-12.4763
▁fandom	-12.4765
▁dim	-12.4765
▁cancerous	-12.4768
▁spi	-12.4778
▁pander	-12.478
iris	-12.4785
▁lest	-12.4787
amble	-12.4789
▁honey	-12.4793
▁similarity	-12.4804
▁undeniable	-12.4807
▁downtime	-12.481
▁unres	-12.4824
▁giga	-12.4826
▁hitch	-12.484
azar	-12.4879
▁nest	-12.4888
llow	-12.4905
hem	-12.4921
▁spinbot	-12.4925
▁tent	-12.4934
▁arbitra	-12.4961
▁roman	-12.497
mage	-12.4994
▁perm	-12.501
vent	-12.5024
descend	-12.5028
▁juice	-12.5036
tholog	-12.505
unt	-12.5052
mind	-12.5062
count	-12.5074
found	-12.5077
nvention	-12.5084
mpress	-12.5088
▁swift	-12.5089
isation	-12.5099
▁tradition	-12.5099
▁wack	-12.5109
▁divers	-12.5111
▁profess	-12.5112
logue	-12.5114
▁mismanage	-12.5116
▁anoying	-12.5116
▁blitz	-12.5116
▁boulder	-12.5116
▁brainrot	-12.5116
▁cityscape	-12.5116
▁descendant	-12.5116
▁frequency	-12.5116
▁geography	-12.5116
▁glove	-12.5116
▁ingenuity	-12.5116
▁jersey	-12.5116
▁keybinds	-12.5116
▁permission	-12.5116
▁railroad	-12.5116
▁scuff	-12.5116
▁strafe	-12.5116
▁sweden	-12.5116
▁unbeatable	-12.5116
▁unhook	-12.5116
▁university	-12.5116
▁vulkan	-12.5116
▁zomboid	-12.5116
▁eagle	-12.5116
▁promods	-12.5116
▁esco	-12.5116
▁augment	-12.5116
▁andreas	-12.5116
▁comrade	-12.5116
▁mentor	-12.5116
▁roguelike	-12.5116
▁furious	-12.5116
▁kink	-12.5116
▁angel	-12.5116
▁cavern	-12.5116
▁availability	-12.5116
▁universalis	-12.5117
▁injure	-12.5117
▁tele	-12.5117
▁sunsetting	-12.5117
▁runner	-12.5117
▁rowling	-12.5118
▁wizardry	-12.512
▁fireteam	-12.5121
▁stronghold	-12.5121
▁hesitation	-12.5125
▁wishlist	-12.5126
cass	-12.5126
▁lineup	-12.5128
▁wth	-12.5128
▁jest	-12.5131
▁stalker	-12.5133
▁setback	-12.5133
▁horny	-12.5134
addle	-12.5135
alian	-12.5135
▁lever	-12.5136
eceive	-12.5139
▁laund	-12.5146
▁lawn	-12.5155
▁questlines	-12.5155
enetic	-12.5157
ana	-12.5164
▁completionists	-12.517
▁thirsty	-12.5175
▁situational	-12.5183
▁xt	-12.5184
▁organiz	-12.5191
▁civic	-12.5193
▁jur	-12.5213
tide	-12.5214
▁scs	-12.522
▁vent	-12.5239
▁clos	-12.5244
▁warp	-12.5268
iterate	-12.5275
doors	-12.5313
▁statu	-12.532
ison	-12.5355
dex	-12.5366
veil	-12.5377
ject	-12.5379
▁irritat	-12.5385
▁mol	-12.5406
though	-12.5414
olved	-12.5425
azine	-12.5427
▁orchestrat	-12.5435
flow	-12.5446
know	-12.5447
▁lik	-12.5454
chor	-12.5458
▁agricultur	-12.5464
▁slee	-12.548
▁acqui	-12.5486
fathom	-12.5486
▁aliasing	-12.5486
▁baffling	-12.5486
▁confine	-12.5486
▁cosmos	-12.5486
▁counterstrike	-12.5486
▁debuff	-12.5486
▁dzsa	-12.5486
▁encircle	-12.5486
▁frighten	-12.5486
▁homophobic	-12.5486
▁kevin	-12.5486
▁lawsuit	-12.5486
▁liquid	-12.5486
▁millenni	-12.5486
▁omega	-12.5486
▁paragraph	-12.5486
▁rectify	-12.5486
▁retention	-12.5486
▁stubborn	-12.5486
▁technological	-12.5486
▁travesty	-12.5486
▁unjust	-12.5486
▁fluent	-12.5486
▁hectic	-12.5486
▁mommy	-12.5486
▁palico	-12.5486
▁roar	-12.5486
decisive	-12.5486
▁causal	-12.5486
▁gruel	-12.5486
▁pivot	-12.5486
▁mankind	-12.5486
▁august	-12.5486
▁spiritual	-12.5486
▁sorcer	-12.5486
▁depict	-12.5486
▁infact	-12.5486
▁certif	-12.5486
▁pacifi	-12.5486
▁hungar	-12.5486
▁cosplay	-12.5486
▁deteriorat	-12.5487
▁hurry	-12.5487
lkan	-12.5487
▁deplet	-12.5488
▁vicious	-12.5488
hino	-12.5488
▁cmon	-12.5489
▁petty	-12.549
▁headphone	-12.549
▁vehicul	-12.5497
▁hamst	-12.5501
▁deviat	-12.5502
▁brush	-12.5504
▁palamutes	-12.5504
▁stinky	-12.5507
aka	-12.5508
agging	-12.5511
closure	-12.5519
▁adam	-12.5523
▁surge	-12.5533
▁distinguish	-12.5544
sign	-12.5548
▁repetitiveness	-12.5549
▁saturate	-12.5554
▁boob	-12.5557
▁reap	-12.556
▁brighter	-12.5561
▁paywalled	-12.5561
▁pm	-12.5565
centric	-12.5572
▁juic	-12.5578
▁cleanse	-12.5584
ensible	-12.5621
▁mythic	-12.564
othing	-12.5657
▁fuk	-12.5669
▁yoshi	-12.5676
▁mali	-12.57
style	-12.5729
reform	-12.5798
▁evo	-12.5807
print	-12.5819
lob	-12.5824
link	-12.5828
suffer	-12.5831
essential	-12.5831
unite	-12.5832
neck	-12.5834
▁occup	-12.586
hock	-12.586
▁milli	-12.5864
▁negotiat	-12.5867
▁mov	-12.5868
▁evry	-12.5871
powder	-12.5871
▁academy	-12.5871
▁chatgpt	-12.5871
▁commerc	-12.5871
▁delusional	-12.5871
▁euphori	-12.5871
▁glaze	-12.5871
▁manhattan	-12.5871
▁nebula	-12.5871
▁peasant	-12.5871
▁proportion	-12.5871
▁republic	-12.5871
▁unexplain	-12.5871
▁unhealthy	-12.5871
▁interconnect	-12.5871
▁terrifi	-12.5871
▁amateur	-12.5871
▁ctd	-12.5871
ensity	-12.5871
▁gaslight	-12.5871
▁monarch	-12.5871
▁bald	-12.5872
▁achievment	-12.5872
▁verified	-12.5872
▁monday	-12.5872
▁wasting	-12.5872
▁drastic	-12.5872
▁scour	-12.5873
▁membership	-12.5874
▁torment	-12.5874
▁fledge	-12.5874
▁peep	-12.5874
▁shittier	-12.5875
▁kidney	-12.5876
moth	-12.5876
▁adaptability	-12.5876
itory	-12.5877
▁yeet	-12.5877
▁clap	-12.5881
▁abilities	-12.5881
pedi	-12.5882
▁compile	-12.5882
▁dispute	-12.5883
▁twelve	-12.5884
ulf	-12.5886
▁cuck	-12.5887
▁uncha	-12.5887
vp	-12.5888
▁ballistic	-12.589
▁engrav	-12.5896
▁lama	-12.5897
▁moo	-12.5899
▁overworld	-12.5901
▁holly	-12.5906
▁gray	-12.5912
igate	-12.5923
imi	-12.5934
▁surve	-12.5963
▁divin	-12.5965
hras	-12.5988
▁statistical	-12.6064
▁whin	-12.607
▁slum	-12.6076
last	-12.6101
▁mont	-12.6103
▁gary	-12.6201
pants	-12.6202
wall	-12.6218
script	-12.6231
significant	-12.6231
throw	-12.6231
open	-12.6238
cycl	-12.6247
pile	-12.6249
rald	-12.6256
pecc	-12.6259
▁mug	-12.6263
▁boar	-12.6265
▁compil	-12.6265
▁benefi	-12.6266
odder	-12.6269
▁succ	-12.6271
educate	-12.6271
▁bliss	-12.6271
▁cryopod	-12.6271
▁democracy	-12.6271
▁displeasure	-12.6271
▁fabric	-12.6271
▁feasible	-12.6271
▁fuzzy	-12.6271
▁hilarity	-12.6271
▁imperator	-12.6271
▁inbetween	-12.6271
▁indulge	-12.6271
▁lighthearted	-12.6271
▁namalsk	-12.6271
▁rebellion	-12.6271
▁recomand	-12.6271
▁squirrel	-12.6271
▁suffice	-12.6271
▁suppress	-12.6271
▁unfamiliar	-12.6271
▁visceral	-12.6271
▁volcano	-12.6271
▁wannabe	-12.6271
▁yippee	-12.6271
▁consult	-12.6271
▁disciplin	-12.6271
▁fallacy	-12.6271
▁wrist	-12.6271
▁brace	-12.6271
▁carbon	-12.6271
▁fierce	-12.6271
▁menace	-12.6271
▁trope	-12.6271
▁brew	-12.6271
▁overdue	-12.6271
▁palworld	-12.6271
▁interpretation	-12.6271
▁shamble	-12.6272
▁reluctant	-12.6272
▁weeb	-12.6272
▁endeavor	-12.6272
▁quip	-12.6274
▁circum	-12.6274
▁spre	-12.6275
▁potterhead	-12.6275
▁milestone	-12.6277
▁arrest	-12.6277
▁rim	-12.6279
▁intresting	-12.6279
▁frontier	-12.628
▁bowl	-12.628
▁corpo	-12.6282
▁carpe	-12.6283
▁digest	-12.6284
▁dogsh	-12.6288
▁muse	-12.6291
▁hehe	-12.6291
▁basegame	-12.6294
▁shittie	-12.6294
▁stride	-12.6295
spire	-12.6301
▁eververse	-12.6303
▁gk	-12.6308
gage	-12.6309
carrer	-12.631
pad	-12.6312
▁deni	-12.6319
▁differentiat	-12.6329
rmed	-12.6333
ypt	-12.6337
lier	-12.6354
une	-12.6383
▁observ	-12.6389
uction	-12.6393
▁undergo	-12.6405
▁concentrate	-12.6436
▁unta	-12.6445
huffle	-12.6462
nne	-12.6533
▁mudd	-12.6538
▁sadde	-12.6541
▁desir	-12.6547
pit	-12.655
▁duk	-12.655
▁strategi	-12.6623
▁gree	-12.6636
life	-12.6647
activate	-12.6647
fixed	-12.6648
escape	-12.6648
pple	-12.6648
current	-12.666
▁palamute	-12.6667
dda	-12.6671
scent	-12.6682
▁maiden	-12.6683
hump	-12.6684
card	-12.6685
surgenc	-12.6688
▁afloat	-12.6688
▁berserk	-12.6688
▁disorder	-12.6688
▁disservice	-12.6688
▁emerald	-12.6688
▁iceberg	-12.6688
▁lfg	-12.6688
▁merciless	-12.6688
▁overhype	-12.6688
▁sponsor	-12.6688
▁stagnat	-12.6688
▁wheelchair	-12.6688
▁bloodpoints	-12.6688
▁carrier	-12.6688
▁courage	-12.6688
▁increment	-12.6688
▁overheat	-12.6688
▁shitshow	-12.6688
▁teabagg	-12.6688
▁reckless	-12.6688
▁partake	-12.6688
▁pony	-12.6688
▁lousy	-12.6688
▁diesel	-12.6688
▁teir	-12.6688
▁wiggle	-12.6688
▁lorry	-12.6688
▁dismiss	-12.6688
▁gunner	-12.6688
▁burden	-12.6688
▁gank	-12.6689
▁periodically	-12.6689
▁stir	-12.6689
▁disillusion	-12.6689
▁fridge	-12.6689
izard	-12.6689
▁revenge	-12.6689
▁elegan	-12.669
▁frog	-12.669
▁scro	-12.6691
▁lamb	-12.6691
▁ripoff	-12.6691
▁constrain	-12.6692
▁embarrassment	-12.6692
▁prolong	-12.6692
▁guest	-12.6693
▁bingo	-12.6694
▁dissapointing	-12.6695
▁reignite	-12.6698
▁hdd	-12.6706
▁stall	-12.6706
▁oversight	-12.6709
▁recon	-12.671
▁fivem	-12.6711
▁abandonment	-12.6712
paris	-12.6717
rtment	-12.6717
rium	-12.672
▁deff	-12.6729
lish	-12.6746
gression	-12.676
▁judg	-12.6789
▁talkie	-12.682
▁truthful	-12.6821
conect	-12.686
jin	-12.6862
than	-12.6948
▁economical	-12.6949
▁vine	-12.6959
▁aggressi	-12.6981
▁peeker	-12.6988
▁micromanag	-12.7016
▁chucky	-12.7049
esha	-12.7051
marine	-12.7055
▁unca	-12.7078
naf	-12.7081
force	-12.7082
enix	-12.7082
rocket	-12.7082
how	-12.7088
▁pug	-12.7095
▁thorough	-12.7095
▁achiev	-12.7099
seat	-12.7101
▁zeekers	-12.7102
▁philosoph	-12.7111
▁lonel	-12.7117
▁gabe	-12.712
▁screech	-12.7122
dominant	-12.7122
reservation	-12.7122
▁blacksmith	-12.7122
▁colonis	-12.7122
▁counterattack	-12.7122
▁delicious	-12.7122
▁genocide	-12.7122
▁horseshit	-12.7122
▁huntress	-12.7122
▁indefinitely	-12.7122
▁manifest	-12.7122
▁manufactur	-12.7122
▁nigga	-12.7122
▁parasite	-12.7122
▁pepper	-12.7122
▁pierre	-12.7122
▁relevanc	-12.7122
▁satir	-12.7122
▁snowflake	-12.7122
▁sprout	-12.7122
▁unaware	-12.7122
▁unchecked	-12.7122
▁unemployed	-12.7122
▁veronica	-12.7122
▁comprehension	-12.7122
▁dummy	-12.7122
▁outbreak	-12.7122
▁sparse	-12.7122
▁macos	-12.7122
▁exempl	-12.7122
▁wukong	-12.7122
▁midfielder	-12.7122
▁bathroom	-12.7122
▁plaga	-12.7123
▁discern	-12.7123
▁walkthrough	-12.7123
▁premade	-12.7124
▁geo	-12.7124
▁alcoholic	-12.7124
▁fox	-12.7125
▁depr	-12.7125
▁sexist	-12.7125
▁econ	-12.7125
▁astronomical	-12.7125
▁vivid	-12.7125
▁duh	-12.7126
▁maidenless	-12.7127
▁dorm	-12.7128
▁snar	-12.7128
▁sheep	-12.7129
▁pronoun	-12.7131
▁wat	-12.7142
▁grin	-12.7145
▁angler	-12.7151
▁casualty	-12.7152
▁coke	-12.7156
quaint	-12.7159
▁haley	-12.7159
▁oppressi	-12.7175
▁pande	-12.7179
will	-12.719
▁ove	-12.7198
▁imaginati	-12.7206
▁shak	-12.7228
▁scamm	-12.7265
roth	-12.7305
▁clima	-12.7322
udo	-12.7333
▁solv	-12.7367
▁litera	-12.7392
istan	-12.7449
setting	-12.7481
okie	-12.7494
▁distribut	-12.75
▁satur	-12.7509
core	-12.7533
compatible	-12.7537
patient	-12.7537
available	-12.7537
case	-12.7539
miss	-12.7539
▁updat	-12.755
▁especial	-12.755
▁impossibl	-12.7555
▁eur	-12.756
▁acces	-12.756
fish	-12.7562
▁facilit	-12.7566
▁recur	-12.7567
stine	-12.7568
▁zoo	-12.7575
▁psycho	-12.7577
▁basket	-12.7577
▁despawn	-12.7577
▁synchroniz	-12.7577
▁behalf	-12.7577
▁exhibit	-12.7577
▁gremlin	-12.7577
▁haaland	-12.7577
▁instrument	-12.7577
▁jimmy	-12.7577
▁lgbt	-12.7577
▁mishap	-12.7577
▁mokoko	-12.7577
▁monstrous	-12.7577
▁psychopath	-12.7577
▁raccoon	-12.7577
▁ravage	-12.7577
▁theoretical	-12.7577
▁uncontrollabl	-12.7577
▁unintentional	-12.7577
▁unmodded	-12.7577
▁canadian	-12.7577
▁carrot	-12.7577
▁humankind	-12.7577
▁rome	-12.7577
▁somthing	-12.7577
▁wuxi	-12.7577
▁scientific	-12.7577
▁pond	-12.7577
▁tmod	-12.7577
▁gym	-12.7577
▁dysfunction	-12.7577
▁erratic	-12.7577
▁rivet	-12.7577
▁arab	-12.7578
▁awp	-12.7578
▁bsod	-12.7578
▁export	-12.7578
▁spade	-12.7578
igan	-12.7578
cifi	-12.7579
▁sunday	-12.7579
▁mastermind	-12.7579
▁trench	-12.7581
xious	-12.7583
▁ethic	-12.7583
▁roast	-12.7585
▁transportation	-12.7586
▁lootbox	-12.7587
▁oat	-12.7588
▁jrpg	-12.7588
▁terminat	-12.7589
▁persia	-12.7594
▁plotline	-12.7594
▁marvelous	-12.7595
▁imitat	-12.7596
▁deriv	-12.7599
▁participation	-12.7599
▁reception	-12.7602
omen	-12.7602
▁certainty	-12.7605
▁intercept	-12.7615
▁crud	-12.7635
cite	-12.7654
▁liberat	-12.7655
hical	-12.768
belief	-12.7689
▁misc	-12.7701
▁exo	-12.7715
spite	-12.7726
▁marginal	-12.774
▁yu	-12.7761
▁mist	-12.7895
mature	-12.793
▁paw	-12.7968
trove	-12.7974
▁cali	-12.798
▁explor	-12.7985
drop	-12.8001
source	-12.8005
birth	-12.8013
complicated	-12.8013
different	-12.8013
shift	-12.8014
block	-12.8019
▁immediat	-12.8031
▁exclusiv	-12.8031
cant	-12.8032
▁dwell	-12.8043
plication	-12.805
▁profession	-12.805
▁experi	-12.8051
▁brag	-12.8052
acula	-12.8053
▁arrival	-12.8053
▁avalanche	-12.8053
▁beggining	-12.8053
▁blindfold	-12.8053
▁braincell	-12.8053
▁celestial	-12.8053
▁charecter	-12.8053
▁chocolate	-12.8053
▁discriminat	-12.8053
▁excruciat	-12.8053
▁february	-12.8053
▁giggle	-12.8053
▁lobotomy	-12.8053
▁motif	-12.8053
▁restaurant	-12.8053
▁spiribird	-12.8053
▁squander	-12.8053
▁umbrella	-12.8053
▁vacuum	-12.8053
▁barca	-12.8053
▁dexter	-12.8053
▁amusing	-12.8053
▁domestic	-12.8053
▁ronin	-12.8053
▁utilis	-12.8053
▁cafe	-12.8053
▁jiggl	-12.8053
▁ggs	-12.8053
▁chemi	-12.8053
▁optimistic	-12.8053
▁jarring	-12.8053
▁kiddy	-12.8054
hotkey	-12.8054
▁waist	-12.8054
▁speculat	-12.8056
▁accusation	-12.8056
▁slavery	-12.8056
▁copium	-12.8056
▁diab	-12.8056
▁assignment	-12.8057
▁preform	-12.8058
▁jacket	-12.8058
▁masochistic	-12.8058
▁compress	-12.8059
▁err	-12.806
▁jab	-12.8063
▁dweller	-12.8063
▁openworld	-12.8067
▁jade	-12.8069
▁officer	-12.8069
uary	-12.8072
▁weaken	-12.8074
▁dna	-12.8075
niest	-12.8076
apolog	-12.8092
azillion	-12.8134
horn	-12.814
▁altough	-12.8141
▁gil	-12.8164
▁cav	-12.8176
vol	-12.8189
tape	-12.8278
▁funni	-12.832
▁clin	-12.8322
nado	-12.8322
cia	-12.8385
▁baz	-12.8474
▁gradua	-12.8486
▁glim	-12.85
father	-12.8513
bird	-12.8513
avoid	-12.8513
learn	-12.8513
experienced	-12.8513
drive	-12.8513
amid	-12.8517
hai	-12.8519
urna	-12.854
▁screenshot	-12.8545
▁prevalen	-12.8551
▁unimagina	-12.8553
▁alexand	-12.8553
▁bhop	-12.8553
▁buzz	-12.8553
▁capitulat	-12.8553
▁carniv	-12.8553
▁colleague	-12.8553
▁collide	-12.8553
▁crimson	-12.8553
▁democrat	-12.8553
▁distort	-12.8553
▁groove	-12.8553
▁hvci	-12.8553
▁inflation	-12.8553
▁kilometer	-12.8553
▁loathe	-12.8553
▁louis	-12.8553
▁pedestrian	-12.8553
▁ragnarok	-12.8553
▁refuge	-12.8553
▁regenerator	-12.8553
▁scorpion	-12.8553
▁screensaver	-12.8553
▁seldom	-12.8553
▁slytherin	-12.8553
▁stylize	-12.8553
▁tenfold	-12.8553
▁unheard	-12.8553
▁jelly	-12.8553
▁snooze	-12.8553
parallel	-12.8553
▁dmc	-12.8553
▁scept	-12.8553
▁jitter	-12.8553
▁playermodel	-12.8553
▁owl	-12.8553
▁hawk	-12.8553
▁lenien	-12.8553
▁complacen	-12.8553
▁unimaginable	-12.8553
▁sacr	-12.8553
morph	-12.8553
▁splend	-12.8554
▁censorship	-12.8554
lusive	-12.8554
▁regime	-12.8554
guay	-12.8554
▁mike	-12.8555
▁enrage	-12.8555
▁submissi	-12.8555
▁extinction	-12.8555
▁penetration	-12.8556
▁kbm	-12.8556
▁federa	-12.8556
▁limp	-12.8557
▁constructive	-12.8557
▁aphe	-12.8557
▁midgame	-12.8557
▁panda	-12.8557
▁thug	-12.8559
▁evasi	-12.8562
▁scienti	-12.8563
▁curry	-12.8572
▁mono	-12.858
arian	-12.8586
intended	-12.8626
▁patri	-12.8643
sumption	-12.8655
▁diver	-12.867
▁rada	-12.8672
▁immun	-12.876
storm	-12.877
▁chopp	-12.8854
gressive	-12.8881
opium	-12.8906
▁demi	-12.8924
▁propos	-12.8926
▁traumati	-12.9015
▁invalid	-12.9023
tip	-12.9038
wash	-12.9039
league	-12.9039
number	-12.9039
▁eventual	-12.9052
▁desperat	-12.9057
cow	-12.9066
▁societ	-12.9068
▁spook	-12.907
▁oblivio	-12.9076
▁wuk	-12.9079
▁lobotomi	-12.9079
lihood	-12.9079
▁admission	-12.9079
▁bachelor	-12.9079
▁bewilder	-12.9079
▁chaleng	-12.9079
▁consecutive	-12.9079
▁conversion	-12.9079
▁crybaby	-12.9079
▁deadzone	-12.9079
▁dealbreaker	-12.9079
▁discrepancy	-12.9079
▁distress	-12.9079
▁escapism	-12.9079
▁ethiopia	-12.9079
▁exorbitant	-12.9079
▁faggot	-12.9079
▁fxx	-12.9079
▁inadequate	-12.9079
▁institution	-12.9079
▁jetpack	-12.9079
▁juggernaut	-12.9079
▁miquella	-12.9079
▁molotov	-12.9079
▁overtake	-12.9079
▁radiation	-12.9079
▁regulation	-12.9079
▁repackage	-12.9079
▁savior	-12.9079
▁scandinavia	-12.9079
▁skirmish	-12.9079
▁suffocat	-12.9079
▁sunshine	-12.9079
▁supremacy	-12.9079
▁suprising	-12.9079
▁victorious	-12.9079
▁estonia	-12.9079
▁fetish	-12.9079
▁oops	-12.9079
▁pigeon	-12.9079
▁refill	-12.9079
▁telegraph	-12.9079
▁unrival	-12.9079
▁intermedia	-12.9079
▁turf	-12.9079
▁vegan	-12.9079
▁foresee	-12.9079
▁litteraly	-12.9079
▁broadcast	-12.9079
▁calibrat	-12.9079
▁reich	-12.9079
▁moneygrab	-12.908
▁digress	-12.908
▁friggin	-12.908
width	-12.908
▁bonkers	-12.908
▁silk	-12.908
▁titanium	-12.908
▁spellcast	-12.908
▁sunlight	-12.908
chasing	-12.9081
▁cultist	-12.9081
▁wond	-12.9082
▁unnatural	-12.9083
▁expier	-12.9083
▁contribution	-12.9083
▁consistant	-12.9085
▁moan	-12.9086
▁bain	-12.9087
▁crab	-12.9089
▁ohio	-12.9089
wind	-12.9089
eligi	-12.9103
▁disgraceful	-12.9104
▁propel	-12.9105
▁dribbl	-12.9129
▁gha	-12.9139
▁orchestra	-12.9153
cause	-12.9163
nfire	-12.9188
▁opera	-12.9302
▁equ	-12.9348
▁supp	-12.9391
▁incentiviz	-12.9396
▁matchmake	-12.9409
ssl	-12.9458
through	-12.9501
▁imagina	-12.9526
▁contribut	-12.9592
▁awake	-12.9592
class	-12.9593
virus	-12.9595
maneuver	-12.9595
professional	-12.9595
▁analog	-12.9602
▁nightmar	-12.9609
▁fiddl	-12.9613
▁homie	-12.9615
▁oblig	-12.9615
▁complic	-12.9618
▁unwin	-12.9627
▁chose	-12.9633
mersive	-12.9633
uzzle	-12.9633
▁pho	-12.9635
▁adress	-12.9635
▁arachnophobia	-12.9635
▁borked	-12.9635
▁catgirl	-12.9635
▁comparative	-12.9635
▁flashbang	-12.9635
▁grammar	-12.9635
▁griffin	-12.9635
▁handcuff	-12.9635
▁hellscape	-12.9635
▁hindrance	-12.9635
▁intimate	-12.9635
▁kamura	-12.9635
▁masochism	-12.9635
▁mcdonald	-12.9635
▁reforge	-12.9635
▁regenerate	-12.9635
▁rife	-12.9635
▁ritual	-12.9635
▁rubberbanding	-12.9635
▁scoob	-12.9635
▁scott	-12.9635
▁sprite	-12.9635
▁sublim	-12.9635
▁townspeople	-12.9635
▁undeserv	-12.9635
▁unfulfilling	-12.9635
▁unoptimised	-12.9635
▁urself	-12.9635
▁workspace	-12.9635
▁adjacen	-12.9635
▁chalk	-12.9635
▁derange	-12.9635
▁proficien	-12.9635
▁condense	-12.9635
▁cathar	-12.9635
▁esteem	-12.9635
▁volunt	-12.9635
▁serial	-12.9635
▁charisma	-12.9635
▁empti	-12.9635
▁mutate	-12.9635
▁ragequit	-12.9635
remade	-12.9635
▁comming	-12.9635
▁dissapointment	-12.9636
▁bonk	-12.9636
▁unfathomabl	-12.9636
▁ugli	-12.9636
▁trump	-12.9636
▁tera	-12.9636
▁schizophrenic	-12.9636
▁obv	-12.9636
▁bullsh	-12.9636
▁prioriti	-12.9636
▁litterally	-12.9637
▁motherboard	-12.9637
▁converge	-12.9637
▁penis	-12.9637
▁sentien	-12.9638
▁dictator	-12.9638
▁greediness	-12.9638
▁foundry	-12.9639
▁punk	-12.9642
▁gli	-12.9667
▁revere	-12.9728
unch	-12.9748
tta	-12.9778
▁industrialize	-12.9809
razer	-12.981
pulsi	-12.9857
▁simplifi	-12.9862
licit	-12.9938
vail	-12.9986
▁negat	-12.9995
▁destructi	-13.0079
isle	-13.01
clusion	-13.0114
hut	-13.0125
sense	-13.0182
conscious	-13.0183
drift	-13.0183
activity	-13.0189
▁unreasonabl	-13.0201
▁replayabl	-13.0201
▁destin	-13.0203
▁barri	-13.0206
gress	-13.0211
▁bloc	-13.0214
▁compute	-13.0219
rmal	-13.0221
ophobic	-13.0223
doctrin	-13.0223
▁detach	-13.0223
▁razor	-13.0223
▁wrestl	-13.0223
▁blunt	-13.0223
▁charcter	-13.0223
▁degradation	-13.0223
▁devastate	-13.0223
▁eclipse	-13.0223
▁herself	-13.0223
▁instakill	-13.0223
▁konami	-13.0223
▁london	-13.0223
▁melanchol	-13.0223
▁miniboss	-13.0223
▁nimble	-13.0223
▁paycheck	-13.0223
▁prohibit	-13.0223
▁puke	-13.0223
▁resurrect	-13.0223
▁shrug	-13.0223
▁slideshow	-13.0223
▁stereotyp	-13.0223
▁unkillable	-13.0223
▁userbase	-13.0223
▁dizzy	-13.0223
▁managment	-13.0223
▁smite	-13.0223
▁haphazard	-13.0223
▁sentry	-13.0223
▁turkey	-13.0223
▁traveller	-13.0223
▁unicorn	-13.0223
▁annex	-13.0223
▁activison	-13.0223
▁misplace	-13.0223
▁cuddl	-13.0223
▁comprise	-13.0223
▁correlat	-13.0223
▁reinvent	-13.0223
▁arrogan	-13.0224
▁tyran	-13.0224
▁forefront	-13.0224
▁quake	-13.0224
▁microwave	-13.0224
▁slack	-13.0224
▁sarcasm	-13.0225
▁muffle	-13.0225
▁innate	-13.0225
▁harrow	-13.0225
ulldozer	-13.0225
▁suspenseful	-13.0225
▁permit	-13.0225
▁fray	-13.0226
▁swag	-13.0226
▁munch	-13.0226
▁storefront	-13.0226
▁decorative	-13.0228
▁harvey	-13.0228
▁beetle	-13.023
litary	-13.0235
ucl	-13.0236
▁regrettabl	-13.0241
verge	-13.0338
▁deserv	-13.0402
▁graceful	-13.0407
mise	-13.0409
traction	-13.0456
▁sensor	-13.0457
guise	-13.0479
▁poet	-13.0518
rench	-13.0562
▁deduct	-13.0592
operative	-13.063
asses	-13.0686
▁twi	-13.0733
gently	-13.08
sufficient	-13.0808
warrior	-13.0808
discover	-13.0808
first	-13.0808
amount	-13.0808
perform	-13.0809
corn	-13.0809
gaming	-13.081
▁evolv	-13.0816
▁politic	-13.0817
▁intens	-13.0826
▁prioritiz	-13.0828
▁extraordinar	-13.0837
unbreak	-13.0838
▁authenticat	-13.0838
▁diplo	-13.0842
▁uncertain	-13.0848
forni	-13.0848
iphon	-13.0848
▁altho	-13.0848
▁condemn	-13.0848
justifiable	-13.0848
▁abnormal	-13.0848
▁actress	-13.0848
▁aggravating	-13.0848
▁approval	-13.0848
▁articulate	-13.0848
▁cowboy	-13.0848
▁cronus	-13.0848
▁dolphin	-13.0848
▁envelop	-13.0848
▁fertilize	-13.0848
▁heritage	-13.0848
▁hysterical	-13.0848
▁ooze	-13.0848
▁oxygen	-13.0848
▁puddle	-13.0848
▁rebind	-13.0848
▁rejoice	-13.0848
▁rerelease	-13.0848
▁soundscape	-13.0848
▁spontaneous	-13.0848
▁underwear	-13.0848
▁unpopular	-13.0848
▁verti	-13.0848
▁warmonger	-13.0848
▁defect	-13.0848
▁hustle	-13.0848
▁vouch	-13.0848
▁musk	-13.0848
▁painstaking	-13.0848
▁profan	-13.0848
▁vigor	-13.0848
climactic	-13.0848
▁gaem	-13.0848
▁despicable	-13.0848
▁themself	-13.0848
▁flea	-13.0848
▁misstep	-13.0848
▁freelance	-13.0848
▁anthem	-13.0848
▁tropic	-13.0848
osaur	-13.0848
▁ovr	-13.0848
▁conjur	-13.0848
▁lens	-13.0848
▁piggy	-13.0849
▁towel	-13.0849
nguish	-13.0849
giz	-13.0849
▁incel	-13.085
▁hijack	-13.085
▁radian	-13.085
▁cramp	-13.0851
rising	-13.0852
▁kong	-13.0852
▁papa	-13.0872
▁residen	-13.0879
▁recei	-13.0885
mpede	-13.0892
▁outwit	-13.0893
grunt	-13.0896
▁survi	-13.09
mework	-13.0909
▁challang	-13.0913
alogue	-13.0928
pawn	-13.0967
equate	-13.1024
▁romania	-13.1111
calib	-13.1127
▁dispos	-13.1148
▁stalin	-13.1172
▁thunderstor	-13.1179
reek	-13.1232
fortun	-13.1278
▁separat	-13.1335
